Ġ 1
Ġ (
Ġ 2
1 9
a n
2 0
â Ģ
i s
L a
0 0
Ġ "
o n
o j
e r
r o
1 8
s t
r a
n t
e n
t o
i n
t a
) .
Ġ -
a j
Ģ Ŀ
i o
1 0
a r
a s
o r
t e
1 5
1 7
i a
l a
a m
1 2
n o
1 6
l i
r i
1 4
1 3
1 1
0 1
k o
t i
) ,
. .
Ġ2 00
a l
E n
r e
Ä ī
2 5
k a
2 1
m a
2 4
2 3
2 2
l o
i Ä
n d
e s
ï ¿
l e
m e
m o
d i
e l
9 9
n a
n i
L i
d o
a t
2 6
Å Ń
c i
i t
o m
d e
Â ¸
a Å
e k
p e
Ä Ŀ
âĢ Ŀ
0 5
m i
o s
i e
i k
t r
u r
9 2
9 1
ľ i
9 4
u n
T i
9 8
n e
an t
9 3
u m
i u
a d
9 7
e t
9 0
u l
9 5
i l
d a
Ä ľ
9 6
e m
p o
n g
0 6
e d
5 0
k on
k i
0 8
r an
i g
v a
s e
o l
0 4
i Äī
0 7
0 2
c o
0 9
3 0
S e
v e
i d
Ġ1 99
0 3
8 9
Ģ ľ
" .
6 0
is t
n u
a Ä
u t
4 0
4 5
S a
l u
8 7
p a
8 0
s p
P o
s o
n k
p r
8 8
j n
3 4
5 6
Ä ľi
r t
3 3
g o
f i
g r
on d
3 2
4 8
8 6
4 4
3 5
6 5
3 1
3 6
4 1
2 8
2 9
3 8
5 5
5 9
2 7
4 2
5 7
3 9
8 5
v i
p er
8 4
4 9
5 2
3 7
4 3
Ä Ī
5 3
5 4
7 0
5 8
4 6
4 7
i c
r u
5 1
6 3
s i
6 4
8 3
6 2
6 1
u s
8 1
8 2
k u
7 9
M i
7 6
7 8
e nt
" ,
7 7
o v
S am
s k
k t
t u
7 5
t oj
o g
6 6
i r
g a
m p
Ġ )
7 4
o t
6 7
7 3
7 2
t er
n c
Äī e
7 1
6 8
on di
K i
. â
m k
. âĢ
e g
6 9
o st
Ġ1 94
di Äī
k s
am k
r m
di Äīe
kon di
kon diÄīe
am kon
Sam kondiÄīe
Ä µ
p l
p i
o k
e o
i m
Ġ1 98
e c
K a
n s
m an
a c
Ġ1 93
r n
Ġ 0
j o
e j
j a
v o
K o
00 0
P r
. âĢĿ
b l
Ģ Ļ
l an
f o
a k
c e
g i
s u
Ġ1 97
u d
i ta
m en
Â »
a f
z i
b o
M a
u j
Ġ1 96
b e
- -
00 5
an o
g ra
Ġ1 95
r d
Ġ .
S ed
on o
E s
s a
er an
a ÅŃ
f e
i nt
g e
d u
an d
i v
D u
b a
ī i
. [
I l
i aj
z e
A n
Å Ŀ
l t
V i
g l
l in
a ra
r g
a p
an to
a b
a v
µ o
st a
p or
in o
is to
I li
c io
E k
i b
A l
Ŀ i
ia m
f a
a ro
i on
e st
k r
a g
k e
k aj
Ġ *
ra f
b r
D um
i el
Ġ1 00
st r
O n
, â
, âĢ
ī o
o c
r io
a z
N e
r k
.. .
t is
s m
O ni
I n
en c
c h
Ġ /
oj n
h a
o d
an ta
er m
Ŀ .
Ġ '
u b
p u
z o
h i
i p
ta j
a do
. )
r oj
o p
l oj
, âĢĿ
k z
00 6
Ŀ a
Ŀ ,
i an
an k
r s
Ġ1 90
Å ľ
er a
r on
D e
an oj
âĢ Ŀ.
e b
b i
Ŀ o
l l
m u
nt er
âĢ Ŀ,
E l
f io
f r
nt a
p ro
T a
es per
m am
K aj
in g
h e
iÄ Ŀ
N u
is m
m b
on t
e z
ti k
f l
. "
] .
st e
? â
? âĢ
j e
to r
t an
an i
m al
P ro
P a
u ro
u a
S u
E st
c a
or n
D i
J e
nt e
A s
b u
u k
K ia
P l
R e
Ġ ,
r b
h o
Äī o
t on
H i
er o
an te
in a
z a
? âĢĿ
ka ÅŃ
G e
i ko
g u
per an
ka Å
k v
" )
e f
d z
u p
l d
v er
T io
er e
d is
is mo
00 8
am en
e p
u ti
a ta
Ġ1 87
aj n
Â °
Ġ ).
k l
t ra
) ;
u te
U n
a st
u g
is k
w w
e a
x o
K r
iÄī o
B a
' s
t ro
e v
Ġ ..
am e
0 10
Äµ o
ti ka
u o
m oj
! â
! âĢ
an a
/ /
p re
ia l
o f
k d
s ek
Â ł
Ã ĩ
H is
er i
e i
0 16
: /
Ġ1 86
er n
9 10
: //
T ia
ar e
or no
i z
P e
T am
k de
u to
gra f
00 4
on a
in e
K iam
K u
00 7
or t
T amen
T r
g oj
N i
ro m
a u
m on
I nt
N G
isto r
gra fio
a to
d on
P or
f or
G C
99 2
Å ľi
o ti
H isto
en d
Ġ 00
k to
v an
l on
Ġ %
p le
u da
Ġ ...
e to
H o
D o
! âĢĿ
Â ²
l k
M o
Ŀ is
isto rio
or d
La ÅŃ
er man
f lu
K on
Ġ2 010
00 1
as k
o b
E sp
I nter
Ġ1 910
i lo
S i
a li
st i
00 9
st as
sp er
ek s
Ġ1 88
p ar
o tika
ar i
M al
er otika
r is
N o
Ġ2 016
re s
0 17
g le
ik i
r l
V e
o ro
on g
g ar
um an
0 15
an c
an g
em p
b er
h u
k ri
er s
nt o
g v
. ,
u i
f oj
r en
00 3
a i
s c
00 2
r um
n ka
b le
is ku
K om
u mi
k c
i f
an gle
ul in
Ġ1 92
oj e
U nu
ku to
u z
L ia
c ia
p li
m in
e Ä
F i
r in
n f
or m
li aj
a la
p iÄī
en i
S o
lo g
e jo
ul ino
c x
va do
al e
t t
0 12
w a
te m
M e
s on
T e
0 18
i er
l p
ar t
um anoj
J a
Äī iÄī
per anto
on s
m io
n as
ra d
Â Ń
g lu
no g
u e
X X
Ġ 000
c om
d an
0 14
no gra
u st
m or
) :
( "
Ã ¡
o ra
no grafio
por nografio
' t
lu te
n Ä
A m
Ġ2 017
z em
d aj
un g
n is
âĢ ľ
l s
a Ã
Äī iÄīo
Äī uro
en a
t in
Ġ1 20
M u
m er
en o
j ar
lu ti
K ro
k am
or i
f er
0 13
i la
er t
Ġ !
ant oj
w i
G r
Ġ2 015
p ic
An kaÅŃ
sp eran
d r
m pe
s h
Ã ©
ta l
u ra
ra j
Ģ Ķ
99 0
n n
0 11
ic x
B o
ar d
5 00
on om
an do
i es
D is
d oj
s en
S t
u mo
k iÄ
u lo
Po ste
ra t
' m
al o
v en
e ti
t en
k an
o u
Ġ- --
K e
me nt
v id
s s
g an
mo va
F r
N M
e lo
c oj
F o
mo vado
P er
A r
on i
p an
k iÄĿ
iÄĿ is
d ia
Ġ2 012
ask iÄĿ
z u
Ġ1 50
an e
p t
k ul
ci an
ro l
in d
em ple
en ci
Ã »
zem ple
N a
id u
B e
l ia
d er
l io
og ra
Ŀ e
A nt
n st
ÄĿ o
is ta
Ġ1 57
r to
Ġ2 011
L e
' d
Ġ2 018
on e
k un
F a
µ oj
t h
Ġ1 25
H a
94 5
e og
j u
C e
G er
i oj
ti v
l ta
Ī a
A so
ri k
om io
Ġ1 24
i li
an io
n ask
* *
Ġ2 014
n oj
a ÄĿ
a te
Ġ #
k n
ist oj
r v
la ÅŃ
Ġ1 85
Ġ1 56
so c
98 0
k ti
da Äµ
da Ä
so cio
in i
» .
o o
o z
] ,
K v
k iu
ci ante
99 5
L o
l aj
B i
Ġ1 84
Ġ1 15
iu j
eran to
Ġ1 23
e ta
ul t
men ciante
Å ¸
ul oj
Esp eranto
e le
Ġ1 37
9 20
A li
ran c
k ta
de k
r c
Ġ2 013
96 0
H e
Ġ1 27
le j
] ;
97 0
O r
n j
t ri
i to
Ī u
f in
g n
R i
ľ .
Ġ1 26
Ġ1 77
9 19
M ar
le k
l en
v ank
ti Ä
J u
b el
ask 
A st
ank am
ra Å
en s
ro p
r f
Ġ +
¢ Âł
âĢ ¢Âł
onom io
an Ä
Ġ2 57
en e
Ġ1 47
ÄĿ a
Ġ1 05
Ġ1 55
el k
G erman
a ve
h t
k oj
g er
20 05
F in
m aj
ra ÅŃ
b ro
Ġ ),
Ġ &
g re
B r
str on
99 9
ĩ u
D isku
T iam
Ġ1 14
Ġ1 33
og raf
v in
P re
aÄ µ
h un
n er
de nt
Ti uj
Ġ1 17
Ġ2 13
Ġ1 13
str onom
e e
l as
Ġ1 18
D a
l g
Ġ1 04
es u
f t
o lo
Ġ1 34
âĢ ľ.
V er
s d
n an
k st
f ik
Ġ1 08
a ti
¸ i
Ġ1 45
l m
A str
Ġ1 06
S ur
Ġ2 08
93 0
Ġ1 19
Ġ1 16
s er
str onomio
Ġ1 07
la Ä
T ie
Ġ2 20
Ġ2 07
e li
am o
s es
Ġ1 10
94 4
Ġ1 36
99 8
un u
Ä ¥
Ġ2 05
st is
P ri
Ġ1 65
Ġ2 06
Ġ2 50
R a
Ġ2 14
95 0
R o
d en
1 00
Ġ2 17
st o
l er
J o
raf io
v oj
Ġ2 16
ograf io
K un
P li
Ġ2 04
or e
T u
F e
Ġ2 56
Ġ2 10
Ń r
v or
. :
a h
i en
Ġ2 15
io g
Ġ2 37
u me
Ġ2 18
Ġ1 35
Ġ1 03
Ġ2 03
] [
o to
94 8
t io
k ur
99 3
b on
Ġ2 19
ro k
99 7
o Ä
da Äµo
e u
n b
M ul
Â «
99 4
94 0
99 6
K el
Ġ1 12
Ġ2 23
e oj
i de
l is
U T
Ġ1 46
i i
i ka
9 18
Ġ2 12
ī oj
Ġ2 24
Ġ1 76
Äī oj
Ġ2 47
is p
ľ ,
st ru
Ġ2 45
T C
an ÄĿ
ka z
Ġ2 25
e Å
li k
ul ta
u la
Ŀ an
ic io
k ci
e bl
98 9
g io
C a
te o
an da
al p
p en
er k
Ġ2 26
i te
e go
m es
Ġ1 920
r ka
er v
N ur
Ġ2 27
v ar
Ġ2 36
el u
99 1
d in
g ran
per anta
m ar
T ra
r r
âĢ ľ,
man io
N un
erman io
re m
Ġ2 33
9 17
f u
O k
Ġ1 919
Äµ oj
97 7
3 00
st ra
9 00
Ń i
s ed
93 3
! "
Ġ2 34
Ġ2 46
ro me
h is
Äī is
am oj
u nt
ek so
' ve
k na
or de
p iÄīo
er b
k si
u c
s l
d io
S c
Ġ1 44
iÄī oj
j x
nu daÄµo
re c
9 05
el kaj
6 00
Ġ2 65
ro v
re z
Ŀ t
Kv ankam
na ÅŃ
z is
98 7
Ġ2 35
J en
ÅŃ i
ta s
ur s
93 9
c k
t re
g en
S ek
3 45
i re
o li
a y
Ġ1 48
u go
94 7
r ta
Ġ2 55
ta bu
aj x
p ri
b ic
" ).
T ial
45 6
u nd
es d
J es
l v
ka ze
h ib
95 6
ti m
G a
93 8
ot is
el ul
l f
98 6
Ġ1 38
a e
ti Äī
eg oj
bu o
na Å
9 24
9 14
t m
Ġ2 44
9 25
ci d
Ġ1 66
es de
m as
es dek
96 8
98 8
er ot
g erman
lan gu
f iki
94 6
el ulino
nt aÅŃ
d zi
am eg
te oj
ci co
am ori
ot ismo
ib ic
ka co
ib icio
sh ibicio
ek shibicio
glu teoj
mam egoj
mam ego
glu teo
ci coj
pu goj
ek su
95 9
d zo
ta t
ta ro
s an
ra m
es ul
c or
su mi
ri b
Äī ies
Äī ismo
96 7
fe tiÄī
mi dzi
o h
92 9
! )
mi dz
K l
4 00
n v
dek naÅŃ
gu mi
n h
sek sumi
ies ulino
dz u
ul taj
ses deknaÅŃ
mi dzo
ko kri
90 8
ta ÅŃ
93 6
p on
98 5
ra k
x oj
93 4
! !
aj xo
er na
M on
ar k
v ol
9 23
v aj
F ine
ur g
es i
c ent
Ġ2 48
nt em
Â ´
C o
an s
97 5
Ġ1 28
en ce
A p
c l
b ur
97 3
ta Å
8 00
9 12
94 9
in is
o mo
90 7
97 6
e la
b lo
97 8
un e
' ,
al d
Ð °
V a
92 8
97 4
f ran
an ka
A d
in k
93 2
s is
nu daj
93 7
ic xo
9 22
90 6
9 26
daj xo
at u
20 0
92 7
98 3
pic xoj
Ŀ oj
t s
94 3
g is
er g
lan do
ek zem
r p
om p
l b
9 13
v al
a ci
95 7
t y
B u
? "
o ci
Ń t
L u
98 4
ci de
Ek zem
t ur
o la
Ġ1 54
b or
nt i
c on
e co
G l
ek zemple
lin g
.. ..
en k
k re
k lu
V id
Ġ1 22
95 8
r Ä
96 5
P ar
96 3
ra v
i pe
ek v
96 6
96 4
i le
T o
k te
95 3
ra Ä
w ik
1 20
93 5
on oj
o i
Â ®
li g
95 4
al g
ci e
e mo
st er
F ran
li t
pr en
ar oj
ul tu
Ġ2 38
N en
p la
Ã Ĥ
dis kuto
nt oj
P le
c orde
0 19
E b
re so
95 5
w iki
97 9
ran d
g are
d m
9 16
Ġ1 918
l Ã
ko l
f ri
j are
7 00
i un
er d
in oj
u po
u Ä
Ġ1 58
o w
per mes
ar te
( â
it u
90 4
R u
C h
iÄ Ŀo
8 87
f on
h ung
v u
P i
lu b
S p
Ġ1 67
ti ko
m m
a o
V o
t p
9 15
ung are
94 1
98 2
t l
p h
h ar
s oj
90 3
er l
S ub
S an
K rom
n l
8 99
mal pli
em pe
r Ã
% )
Ġ2 28
m is
8 98
c t
9 21
k or
ntem pe
la sta
et er
H u
nt u
Ġ2 54
Ek zemple
ci p
J am
] )
iki pe
Ġ1 917
o le
T h
om en
ran da
Ġ1 905
ek to
la t
k is
w e
- ,
er oj
er ant
v is
K io
Ŀ )
97 2
od ia
âĢ ¦
P lej
90 9
k in
} }
94 2
0 20
br oj
l or
ro f
f te
Ð ¾
o cio
p ek
la m
ta d
al s
k ra
1 15
1 13
S en
en er
. -
Ge ograf
1 10
i j
4 20
Ģ ²
96 9
A Å
93 1
Ġ2 22
or g
K or
2 20
Ã ¼
l ar
gre so
0 24
i me
in ist
ia Å
in c
pa rol
8 94
p ra
98 1
4 15
9 11
or to
on to
Ġ( âĢ
la v
O f
" ),
ri g
Ġ1 02
du k
1 14
c u
B on
. ).
8 95
i mi
f ar
ka Ä
6 20
y l
K ar
ro t
ri e
8 90
5 20
Äī er
' .
in j
on st
Ń ro
ia ÅŃ
ÅŃ ro
en co
e di
n on
o va
ar m
ÄĿ an
A k
g h
al l
d or
ko mp
1 17
1 19
A f
Ge ografio
ka Äµ
Ġ1 914
L in
is te
e in
1 18
Ã §
Ġ1 925
st ro
k io
Ã ¶
p s
ra s
8 97
6 18
96 2
is toj
8 96
st u
Ġ1 924
J un
3 20
es ilo
o e
, "
ista s
le m
3 17
Ġ2 58
1 16
â Ĺ
ï ¼
o me
ÄĿ e
mes ilo
u ste
s ur
2 15
z ista
4 17
u re
ÄĿ oj
i ra
Â ¯
b la
ar to
5 19
y s
tem pe
li m
4 18
Ġ1 922
aÄ µo
i ri
odia ÅŃ
S in
1 12
B io
am p
Ġ1 30
3 14
la Äī
** *
io gra
u de
A ÅŃ
T em
o ka
âĹ ĭ
s am
17 5
ti on
z istas
20 1
2 19
ta r
âĢ Ļ
s io
or ie
3 18
âĹĭ âĹĭ
6 19
u se
4 16
2 17
8 20
4 12
un gar
b an
ta to
7 98
t ia
F l
u ni
15 6
k ro
) )
7 65
u ri
to l
8 48
u f
15 0
p oj
18 3
4 19
3 15
20 9
19 4
Nu ntem
pe d
ÄĪ iuj
i ro
h el
f ra
re d
er al
13 9
14 8
3 16
3 19
5 10
95 2
am i
4 10
2 18
-- -
G la
ir ka
12 3
20 4
Ġ1 923
5 18
16 5
12 8
14 6
b aÅŃ
am ik
13 6
20 2
8 93
10 3
16 7
15 3
ran ce
10 4
Ġ1 000
( =
Ġ1 912
20 8
12 5
17 7
6 17
3 10
z ita
20 6
12 9
2 10
j on
s ka
13 5
z on
13 3
23 4
8 15
r y
ci oj
la ro
18 7
14 3
F or
12 4
12 6
20 7
ig i
15 7
6 10
15 4
16 6
li c
15 5
** **
13 8
13 7
10 5
15 8
6 15
19 5
ľ a
I r
18 8
10 8
19 2
17 3
ra l
12 7
5 17
16 3
17 9
k ar
18 5
a a
20 3
o do
15 9
20 5
G ran
me nto
14 5
18 6
li e
17 4
19 0
13 4
19 3
10 9
16 4
I u
ar l
u na
14 7
ro g
g in
17 8
5 26
4 25
, [
ti g
5 15
10 6
18 9
19 1
14 9
16 9
17 6
18 4
5 16
si m
2 25
14 4
13 0
Ġ1 78
3 25
10 7
l n
19 7
16 8
K iu
st rio
er f
Ġ1 75
5 14
o a
ro d
14 0
8 26
19 8
Ġ1 32
O ka
Ã Ń
A liaj
ie nt
18 0
16 0
Ġ1 926
19 9
2 14
m un
n un
io grafio
10 2
17 0
5 13
2 13
3 12
er io
o ko
Ek zistas
Ŀ aj
3 13
19 6
2 23
st in
4 13
3 24
N ov
p at
23 6
2 24
on ta
6 23
2 12
ge ograf
D an
Ġ1 921
kt u
Nu ntempe
8 50
23 9
5 25
23 8
14 2
24 7
4 14
24 4
24 5
6 24
6 12
24 8
ri m
ka d
8 19
24 6
i do
6 05
23 7
j p
nt aj
an n
r ia
te k
c er
V idu
b log
23 5
te l
or ta
, ,
f al
12 2
24 3
13 2
6 16
ÅŃ e
o Å
97 1
2 95
2 16
G ra
i Å
6 25
5 24
6 13
h er
E ble
u is
Ŀ u
fi c
re k
18 1
na c
m l
34 6
25 5
-- --
re ÄĿ
15 2
min ist
f an
96 1
Ġ1 900
25 3
16 2
25 8
18 2
23 3
6 14
on c
B az
n or
Ġ1 74
ol u
4 24
25 6
3 23
5 23
8 16
w in
log io
y a
lu bo
j oj
M ia
4 23
pro ksi
ra du
ed er
4 26
Ļ ,
8 92
25 7
24 0
in de
4 05
25 4
G laÄī
re ci
5 12
un k
A fri
ka Äµo
3 26
17 2
7 93
nt ro
ti l
Ġ1 913
ri ko
l ant
25 9
25 0
24 9
0 25
ir kaÅŃ
iu jn
ra di
e ÅŃ
ri t
Ã ³
87 8
Ġ2 02
k la
90 2
s in
6 26
ra b
g on
3 94
u Å
ant is
4 99
am a
h an
u ÄĿ
8 14
on f
ge ografio
P lu
3 05
l es
Äī ero
W i
0 23
7 20
laÄī ero
ur bo
M an
87 3
in da
3 98
n z
ti ta
ta do
3 99
5 94
22 8
q u
m t
5 99
8 06
8 25
8 05
22 9
10 1
Ġ2 32
Ġ1 80
8 18
ra c
5 98
O ri
ci en
cio geografio
So ciogeografio
22 6
8 12
A b
2 99
st an
Ð µ
4 93
26 7
A mb
7 15
b ra
8 03
s pe
% .
4 06
b s
m ul
23 0
b en
er en
26 5
8 10
8 13
h r
pe c
25 2
345 6
er r
to ro
12 345
0 99
ar io
ra to
b ri
5 93
4 94
nt r
12 3456
26 4
22 7
0 94
26 3
Ġ1 68
2 97
ro s
88 5
l te
3 06
88 8
7 99
b oj
? )
4 08
3 97
7 94
C i
Kom ence
05 4
26 6
3 04
c es
Ġ1 887
f lan
5 97
8 23
8 24
3 08
2 98
ra do
ri l
Ġ2 64
88 6
87 6
8 17
88 4
3 93
an kaÅŃ
âĢ Ļ,
0 93
3 95
4 97
m s
5 05
u ta
y le
C ent
4 95
ig o
b li
0 98
2 96
26 8
al gra
86 7
n y
lan k
0 26
3 07
95 1
87 7
3 96
man e
ra fi
4 98
4 96
7 95
6 03
N or
id an
2 94
u x
S ta
j i
ak te
6 08
5 95
ar an
7 19
e or
5 96
6 04
om u
05 6
88 3
2 93
87 5
6 06
ta lo
li b
Ġ1 64
foj e
in io
50 7
ra ÄĿ
ce p
6 07
s ci
7 18
c en
ci pe
Ð ½
in ki
0 97
n r
30 3
05 3
26 0
e fe
9 01
s ch
4 07
S ch
05 8
5 06
ko mun
U ni
Z e
15 1
3 87
or ma
0 96
H od
h Ã
h tt
05 7
ek t
05 5
7 10
05 0
8 45
" -
7 96
ar iÄ
4 87
Ġ1 911
v ad
es p
87 4
g aj
3 56
er c
7 97
Ë Ľ
ar u
ent ro
er te
F on
er ne
ek ti
e x
8 04
06 6
ko lo
s v
n io
v as
H odia
en iu
4 03
K an
erman e
3 50
7 13
Ġ2 40
3 34
0 95
ni v
34 7
45 3
26 9
06 7
gi ta
! .
' '
en u
86 3
mi ta
B al
Ġ1 916
Ġ1 53
4 04
50 4
p lo
f ek
7 17
ist ri
24 2
5 90
b re
t n
p ud
8 56
06 4
sp ek
V en
2 87
50 8
7 90
33 7
di re
g vo
P et
st it
45 7
lin gv
Ġ1 60
na Ä
8 07
aÅ Ŀ
li Ä
Ġ1 43
50 3
en b
on on
7 16
on k
Ń a
06 5
Z a
K uti
la c
5 56
e te
G o
ã Ģ
e y
Ġ1 83
ro b
04 8
v r
7 25
ri ta
u do
5 50
06 8
7 14
7 23
86 6
ti me
56 6
45 4
06 3
6 99
04 4
n Ã
56 7
7 87
in stru
c is
u jo
Ġ2 63
tu ro
T he
34 3
s ki
. ),
07 3
8 08
3 86
S h
d min
ta jn
7 04
Ļ .
Ð¾ Ð
G u
35 7
man a
s aj
07 8
aj ne
k m
Ġ1 40
W e
87 0
45 8
e ÄĿ
or f
Ń s
tika Äµo
ac h
2 90
7 24
h av
Ġ2 43
7 26
Ŀ as
4 45
un blog
5 86
6 45
Ġ2 30
E S
7 05
or na
Ġ2 53
4 90
Ġ1 898
" ;
Â Ŀ
g m
ni ver
33 3
li ti
5 87
07 4
A t
4 27
32 7
u v
36 7
le g
r Å
T re
U s
Ġ1 915
ent o
02 7
li bro
5 45
37 7
l to
45 5
17 1
e da
Ŀ int
8 28
7 08
05 9
33 6
6 56
ti ve
on u
an ti
o ta
3 90
ã ģ
04 3
as i
is i
34 4
o ÄĿ
08 3
Ġ1 848
7 50
86 8
6 34
d as
23 2
gra ÅŃ
ac io
4 50
po z
j un
7 12
K ont
Ad minist
gr upo
04 7
08 7
d ra
ra z
na cia
Ġ1 63
3 65
na Äµ
8 57
08 8
i ero
or k
d ist
l y
86 5
or ti
02 8
. Â
ro du
Ġ1 73
pe dia
en h
08 4
4 33
Ġ1 899
ar c
K ore
04 6
z id
el an
07 7
at r
12 1
la y
M or
in jo
56 5
3 88
65 7
86 4
8 33
8 80
p in
8 89
7 06
08 6
iÄĿ int
5 34
al f
/ ,
03 4
E Å
na Äµo
di c
04 5
P al
k al
m ia
j t
6 95
B ri
2 88
O fte
Ġ $
f f
56 4
0 90
48 6
B l
e an
as a
F ak
27 7
5 33
i da
56 3
y st
Ñ Ģ
c an
E Ä
( .
07 5
d re
par te
u ko
4 88
5 88
07 6
na ci
ar ti
Kon gre
6 93
! ..
6 97
ko m
d s
5 36
2 86
o fi
6 94
nt on
7 07
8 44
4 37
no va
al u
36 6
8 22
li f
5 22
er on
E ÅŃ
por naÄµo
4 34
6 96
l 
z oj
7 45
c r
Ä ´
ont ra
33 5
u ma
6 33
or do
6 22
i ti
F u
unu la
6 98
om er
ci eto
08 5
6 50
erman a
em as
er aj
H odiaÅŃ
z an
p p
6 48
a co
Ġ1 890
38 5
aÄ µoj
f il
03 3
ar b
oj a
03 6
wiki pedia
la Äµ
g or
44 7
8 30
l le
is ti
la p
da ÅŃ
io m
37 6
ko to
8 34
Kon greso
4 36
03 8
ent a
48 4
ÅŃ t
# ?
T E
84 7
Ġ1 500
in u
ur so
7 86
u li
06 0
E Äī
st yle
ko ra
O kaze
6 37
22 2
I o
5 44
int e
i vo
ik in
an u
35 5
87 2
G i
Mal graÅŃ
te g
57 4
L an
5 35
6 44
is ma
03 7
z io
H er
Â ·
Ð º
8 35
em b
R eg
el p
u per
al k
st y
lan d
8 36
34 8
ek ve
g va
h en
on an
48 5
e ci
3 22
6 27
8 91
4 22
t Ã
âĢ Ļ.
7 57
44 6
8 60
B er
7 03
it an
16 1
u ka
U r
28 5
03 5
ad on
E A
7 56
6 90
a Äī
% ,
27 6
5 48
er at
l um
es o
j an
d ro
pla y
ok cide
dis pla
W a
de nte
n aj
en de
l la
Li go
C er
E nt
or toj
g la
Ģ İ
re mi
or te
ro gra
in s
h n
er lan
4 35
7 88
Ð ¸
te c
84 6
ti ÄĿ
56 8
ta ta
d l
0 22
rol 
Ġ1 70
lo v
5 27
s z
m br
i is
S k
? ?
' ll
65 5
yst yle
displa ystyle
toj n
ita j
p it
om un
n ur
la bor
H un
k ia
ni k
4 48
p as
36 4
Ñ ģ
Ġ1 895
57 7
on io
Äī efe
en oj
s ono
ve nt
55 7
an Äī
st re
al est
4 65
M em
A v
... )
g no
l h
88 2
ĩ a
6 35
s ig
ï »
ci enc
el l
n p
r z
e w
am b
e h
87 1
P u
eb le
ur go
o ma
to ri
e io
os e
ri c
I s
47 7
e po
e ma
V ik
om i
er ac
g as
on v
Ġ2 42
er ale
s ia
is o
» ¿
6 36
48 3
la d
d t
7 92
d am
e me
Ġ( ..
L ing
6 87
jo ro
h al
Ġ1 01
ro pa
x i
g ve
ore io
33 8
st on
il oj
4 92
54 7
oj o
unu laro
gar oj
20 15
on te
38 4
X i
J unu
35 3
Esp erant
id anto
ur b
E R
Ġ( ...
65 4
P ol
7 22
S er
E d
? .
t z
Ġ2 60
c aj
7 35
35 4
N as
7 55
7 34
ic h
k er
F akte
57 6
8 55
7 33
en kon
Ģ ī
est in
I S
Ġ1 896
46 7
ka Ã
s em
ul te
kon tra
08 0
ta g
27 5
m te
hun garoj
Ġ1 42
32 8
e fa
at ro
8 37
gi on
8 40
( *
Ġ1 894
Ġ1 897
le kt
e ko
i Ã
per ant
li br
z ent
ani z
36 8
is e
44 4
T er
E r
li ber
5 37
on do
or u
a kt
er si
a go
g ia
an ko
z aj
46 6
A N
ig u
en da
D io
6 47
26 2
u an
k va
A g
28 4
nt an
m n
65 8
f en
7 36
E L
f re
d h
k lo
55 5
en n
I a
a in
p te
kv ankam
le c
em aj
te mo
on aj
s al
47 6
7 84
27 4
27 8
ÄĪ ir
à ´
ik inoj
86 2
ra p
l st
Ã ¤
b ar
E v
I uj
4 28
7 27
h om
4 38
14 1
li ter
7 44
ra ÄĿa
ka Ã»
si ta
Ġ1 52
fri ko
Ã© s
36 3
p aj
) â
8 27
44 3
sp ekto
ki ta
ÄĿ i
l ko
ÅŃ to
ÄĪ irkaÅŃ
ÄĿ anta
ma to
g ani
anta ro
8 32
Ð »
ek c
e Äī
et oj
te j
Ġ1 892
88 1
85 8
54 6
b al
J unularo
35 8
T ur
iÄĿ as
nu e
i di
li Äī
de nta
en do
M A
L E
85 4
T ri
5 28
u zi
Ġ1 850
ter at
7 76
z er
) âĢ
Ġ( 
al da
er iko
k rom
7 89
ol l
s b
ja raÄĿa
er to
ï Ŀ
eÄ ¥
ist re
u ÅĿ
h or
aj a
5 38
ti va
37 4
on da
ma d
to p
ä ¸
Ġ1 800
3 92
S ci
Ŀ on
et ere
7 48
A ng
F oj
en eb
n ko
V V
ling ve
6 46
38 3
6 88
20 04
mi l
e on
f erm
65 3
i ve
57 5
le t
l lo
ek cio
ri p
il io
X ian
Ġ1 82
si er
kul turo
me t
l Ã©
or ig
g al
er p
s f
33 2
87 9
Äī a
m ino
v ia
' )
v el
l ti
re gi
ci on
Ġ1 72
G randa
eder ac
pren eb
le kto
est ina
d k
Ġ1 901
minist re
Sin joro
K re
ist an
il l
O s
ho f
8 02
al de
37 5
5 92
Ġ2 62
a po
or mo
V al
ht ml
86 1
C l
te jo
Ġ2 52
i ma
lan ke
04 0
da k
âĹĭâĹĭ âĹĭ
om b
as o
a ka
s r
v il
c la
6 38
4 02
ta k
a ko
n en
20 00
k Ã
Ð ²
n m
lo go
2 92
la g
84 9
A sp
s il
ro c
) "
k as
ener ale
6 28
b io
B ra
E t
A S
r ino
6 86
3 02
f ig
pren eble
F oje
T O
37 8
F ed
âĹĭâĹĭ âĹĭâĹĭ
zid anto
R A
Z el
la b
ks a
ru a
v ig
k ni
d es
u aj
h in
Ġ1 893
f ak
86 9
lu g
ro te
? ..
ľ )
j r
7 38
o Äī
20 14
t k
kon gre
Ġ1 62
la te
F er
as s
es e
li ka
Ŀ in
st oj
! ...
8 31
al v
55 4
k el
an on
8 38
lo ra
pre zid
ko v
un umo
p ana
sta ta
5 84
8 59
r ist
" :
13 1
Ġ1 798
ur n
N ask
ia d
o ve
on ti
Ġ1 828
T uj
m po
an de
' Â
3 30
ar ta
int a
C et
t f
ra Äµ
K al
d f
L S
ank ta
85 3
ã ĥ
In stit
Pal estina
55 8
0 92
mo k
S A
57 8
f es
or oj
to d
h isto
ri ka
is ko
l no
tu ra
re Ä
ko raÅŃ
6 02
g il
Å Ł
V ir
R us
la ta
S v
en an
Ñ Ĥ
en ho
in co
anta j
u so
00 00
S pe
f am
7 28
Am eriko
la Äµoj
ko men
ub li
ig a
7 85
f la
ra g
s ko
u on
ua la
ta m
b in
istri kto
5 30
re t
5 32
P ra
a va
te nt
to k
w o
7 46
Äī iu
O b
ber g
28 3
ma ti
6 65
Z am
05 2
7 37
m broj
8 11
t v
Ġ 03
Ġ 04
A spekto
la ra
g ro
lu z
nt ra
Â° Âł
do si
5 85
K lu
n al
st ri
i bl
s kaÅŃ
I V
el oj
D on
gr up
u di
ci l
E T
07 0
y o
pre cipe
F eder
r lan
il on
G v
ga do
oj ek
al oj
' Âł
4 80
h l
Ġ1 600
an toj
6 32
8 21
en is
à ¤
Ġ1 880
34 2
7 30
5 01
B or
er u
Ġ1 803
V iki
es a
ka do
ra r
in klu
Ġ1 889
it uto
j or
io t
Ðµ Ð
or io
ar on
i h
**** **
ar iÄĿ
m Ã
i ere
si mu
45 2
ri on
Ŀ ).
to m
k p
e mi
stit uto
p lu
Äī i
50 2
S ank
d el
87 65
6 30
b il
B I
ÄĿanta ro
no v
¦ âĢ
d al
b urg
C etere
27 3
ÄĪ efa
ta Äµ
li on
P I
s n
j m
Ġ1 815
re j
or l
ta ra
ig ita
7 78
ac ia
z eo
46 4
om pr
ia la
4 32
I om
M as
f aj
I N
amen ho
nu a
an aj
is c
A nd
ri ent
an j
d istri
Sam tem
8 01
k en
S P
76 7
k so
! Â
k f
g res
6 11
kci de
j par
Lo ÄĿanta
ch e
85 2
S al
d ar
L Y
Pro ksi
man iere
Äľ ener
Ġ( âĢľ
3 80
Sam 
al an
er no
ra Ã
lu ra
W o
a w
li gi
in aj
j s
84 3
ksi m
i zo
7 47
ol io
d um
ur is
re sp
Ä ĥ
on ge
b ac
g ent
6 92
om oj
ÅŃ r
B ar
eran ta
5 40
d ant
le me
So cieto
kon greso
M in
v Ã
E f
k ie
F ra
lu zi
77 7
âĢ Ŀ).
V ikipe
Z amen
v et
âĢĿ .
u iÄ
fi ko
b as
ver si
47 8
47 5
7 91
g ri
sis temo
h are
47 4
56 2
li ta
L on
Â ¼
al t
es s
â Ī
u pr
06 2
er ia
bl io
A u
li ke
Ġ1 09
ÅŃ a
g s
ent e
j ek
J or
c lap
ist in
er Å
est o
4 30
il d
La st
b ru
35 2
¥ a
cl Ã©s
Kom pren
pan e
Ð° Ð
i ci
en ia
**** ****
z ik
al m
in ar
ri bo
ã Ĥ
i ru
7 02
Inter nacia
08 765
s la
lo k
re i
ra i
37 3
Lo ÄĿantaro
de nto
kt ua
ci aj
Ġ1 39
E ÅŃro
el ando
ne j
T ro
u oj
" [
R E
u sta
f un
ek u
36 2
w s
zi ko
b ot
or is
ute m
48 2
o po
l j
p d
Ġ 07
no l
Ġ1 89
T ran
kon ti
b aj
a ga
28 2
11 1
me mbroj
57 3
d eno
20 06
ar in
er re
I I
I m
6 60
07 2
er ni
% ),
ar ko
li z
daÄµ oj
04 2
K ul
P at
al aj
7 11
7 60
- )
P E
d ina
o te
ksi mu
46 8
on de
2 11
O l
uti me
enc oj
H el
ri gar
5 11
ri d
ar ia
Ġ2 019
55 3
R en
3 11
An kaÃ»
7 54
â Ļ
ar anÄĿ
x a
ute mpe
kt oj
65 2
2 80
ia le
f ac
si me
ka pa
3 40
K ie
er ÅĿ
men a
it ro
N T
ina st
p un
. ]
lo m
Äľ 
ri lo
I t
gar io
g y
mo vad
8 09
08 2
et u
di ta
lin gvo
7 58
ro po
io l
t ing
re da
li d
µ a
iv er
7 83
nt re
P as
h on
Ġ1 826
su ba
5 80
v io
te mb
kta do
Ali ke
are Alike
Sh areAlike
Ġ1 857
3 60
7 80
Ġ 08
S ankta
ksi me
76 6
C erte
6 40
al b
E m
d d
7 32
6 21
en on
L A
Ġ2 09
B el
f el
h od
0 30
ko le
to v
s Ã
20 08
c z
v ero
4 11
Ġ1 860
pa ro
M at
c in
Ġ1 856
du kta
38 2
V ia
K ari
E J
sta taÅŃ
O kci
Ġ1 81
ist ra
R ad
Mi koto
un ul
re a
Ã ¨
K lubo
4 60
p ti
6 01
or an
n um
S te
Ġ1 845
ra ta
on n
H ungar
5 60
4 21
C u
ra mo
erb ur
po l
O rig
Ġ1 79
v it
or p
! Â»
Ġ 05
v on
b j
85 1
z aÄ
cia la
mb ro
6 76
ar n
y e
Ġ1 830
ap it
p ens
p os
pe ci
3 01
ri z
pl oj
A T
kon stru
8 42
Ġ1 59
in di
ma ta
tr an
enc a
5 43
20 09
2 21
p is
mi g
r h
mu me
e is
7 40
ek ta
ari ero
a per
t te
? ...
6 43
4 40
ran s
eder acio
isk ri
b era
ga ra
al is
l li
m f
k vo
44 2
¡ n
klu zi
don e
Ġ1 29
24 1
U E
Ġ1 820
en aj
u be
c s
amen hof
8 41
¥ i
c c
Ļ âĢ
f ine
H an
Kom preneble
va Ä
v iÄ
c al
mi le
um er
or in
H ar
as e
Ti ute
t ina
am il
st io
g x
N A
lo s
3 21
h odia
7 01
de m
20 18
at uro
. (
M uz
Ġ2 49
P res
ma Äµ
an al
---- --
va Äµ
h Ã¡
Ġ1 844
fi aj
st at
li ma
C ar
R O
Ti utempe
or da
E K
m pr
N E
d v
66 6
ta la
l c
ki j
ar Ä
. Â»
½ ,
ï¿ ½,
\ "
tra ÅŃ
03 2
2 91
lo ÄĿ
ti el
Ġ1 11
no m
Ġ2 500
ul to
i mo
li an
Â ī
A nta
er da
s ul
in n
ment oj
vi de
ti c
ekti ve
5 21
å ¸
8 39
27 2
6 84
19 92
re f
vin co
V ere
7 70
di g
" ?
l Ä
an is
ÅŃ st
Ä ¤
ogra fi
fi cia
gi lo
o ku
k ant
ar do
de o
v d
h odiaÅŃ
in for
V I
I nd
Ġ1 806
U z
pa ÄĿo
zi ve
al no
Ġ1 891
R es
âĢ ŀ
L I
nd e
4 01
c ial
I am
on is
ti gi
vol u
man i
20 07
di d
6 80
te co
20 03
di k
E le
ua laÄµoj
r lando
Ġ2 59
z ul
¥ o
en g
b d
e do
Ð° Ñ
fer en
l do
¼ Į
( -
- :
ap itro
6 77
Ġ1 49
u al
C r
pro vin
li p
E N
ro vi
p el
ad io
Ġ1 69
ar s
akt ualaÄµoj
cep te
no mo
ont raÅŃ
m ojn
po st
T en
Ã ®
id in
7 21
A z
I ns
pe di
D ek
M I
Ġ1 816
76 8
D r
te kni
77 5
âĢĿ ,
ma t
S E
K ur
ri nt
or s
S z
le gi
Äī ir
el s
un ejo
55 2
6 09
nd o
an ke
u no
kon om
d at
20 16
Ġ1 793
b t
or ko
F ar
an di
r j
p df
Kom unejo
Ġ1 812
Ġ1 700
58 3
37 0
l z
Al don
Ġ2 39
to s
pre zidanto
Ģ ³
A par
Ġ1 814
gi ono
f ru
E kon
ÄĿ is
Ġ1 787
or tu
in daÄµ
mb er
6 85
S em
ko p
l r
âĢ Ŀ)
un ga
Ġ1 804
t un
I D
ol lan
66 7
8 29
ant ist
e al
p to
j l
in daÄµoj
flan ke
inklu zive
ke to
at oj
20 10
ra e
- >
---- ----
r isto
ad a
er es
25 1
ī am
la k
z or
% ).
46 3
el d
to li
ra kt
H ol
di on
Esp eranta
Ġ1 776
kon du
A mi
ci u
¸ Ð
k k
man oj
K ri
s et
ÅŃ g
D O
ub i
77 3
ro fi
en di
V in
¸ Ĥ
t ist
ni c
al on
G al
âĢ Ķ
an gla
ÅĿ ajne
3 89
23 1
li to
N at
ti ke
bl aj
27 0
d n
d istrikto
Ġ1 855
ma il
g ni
ogra fiaj
t ine
77 4
d iÄ
um oj
Ġ1 805
ma Äµo
c el
µ e
F am
M er
7 64
/ â
Äī irkaÅŃ
) [
h isp
g ul
O m
S l
T V
47 3
fe liÄī
ÄĪ ef
ÅĿ aj
ar ÄĿ
I ta
3 09
å¸ Ĥ
ta toj
aj no
in f
An koraÅŃ
p ub
la ÄĿ
en io
ĩ e
ÄĿ u
D ie
g li
Ġ1 807
y n
E u
Ġ1 840
Ġ1 810
Ġ1 825
Ð ¼
era la
K li
is a
Ge ogra
en era
i ono
a us
4 70
P la
io te
Ġ1 837
Ġ1 790
al in
S pi
Ġ2 29
en as
Ñ Į
f ekti
in an
in eo
s ol
ri Äī
per a
Q u
ÅŃ d
ap an
ro u
/ âĢ
Ñ ı
Ge ografiaj
Ġ1 795
t ono
S ud
H om
g lo
µ on
erb urgo
Pet erburgo
bl as
i po
M E
Ġ1 300
D en
t j
Li ter
3 91
o ur
ur oj
u le
Ģ ĳ
57 0
ma ro
b is
Ġ1 835
26 1
M Ã
ÄĿ ejo
du ko
6 63
F ond
de b
m pren
ie nta
u ki
O p
isp ana
z in
s ona
Ġ1 836
me mb
lo gi
mp le
37 2
2 89
j k
en iam
5 89
7 09
ï ¬
re g
Ġ1 818
nta Ã»
h p
ran ca
19 45
4 91
7 42
0 91
le ÄĿ
si tato
e vi
pa ra
20 12
77 2
) ).
Ġ1 859
talo go
at ura
gra m
vi v
a di
Ġ1 400
m per
versi tato
ik aj
st aj
o is
dina stio
4 29
, Â
er ig
ci f
ar g
7 53
da ro
en r
is l
ÅŃro pa
askiÄĿ int
sk ul
Å ¡
vi vo
A ra
a is
up oj
4 09
Ġ 06
b ita
S tu
b at
Ġ1 833
Ġ1 813
7 63
G ru
ie nte
en z
ajn as
6 78
ik s
ie d
to lo
0 21
re p
Ŀ ),
M O
.. .)
6 42
ant on
ÅŃ s
te gor
t iam
7 82
vi z
p Ã
pe cia
7 59
34 9
el on
ka p
7 43
ar ki
ma do
er ta
A R
D E
anÄĿ oj
s id
k le
ar la
Ġ1 808
6 83
6 91
l ur
F re
an an
Ġ1 799
di rec
ÅĿ o
pro vinco
ud h
am ent
Ġ 02
ÄĿ aj
Ġ1 824
e ze
lo va
x e
Ġ1 819
ro mp
6 29
Ġ 09
la me
re ta
¥ e
O N
vad on
A E
Ġ1 823
jar iÄĿo
mal lon
5 91
r te
isk ribo
g aniz
or ganiz
eo lo
le f
b ona
' re
rec t
ti vo
do k
gar d
Ã ¿
po ste
li l
Ń n
J an
L U
E V
ikipe di
La sta
5 42
4 89
Ġ1 796
int erna
37 9
D ist
Ñ ĥ
la tine
V il
el aj
l mo
aj o
lu a
un uloj
un ua
20 02
57 2
v s
Ġ2 020
50 9
tr u
Ġ1 784
ka talo
R ez
45 9
er bo
ru k
j ro
Ġ1 817
inj or
Pr isk
G en
Ġ1 100
lu s
le co
g es
li v
ka talogo
p il
u el
Ġ2 11
Ġ1 794
B one
7 62
' "
l Å
du ktado
de j
ra ro
Ń k
g g
J ap
es ce
kon kur
ra jn
E i
7 81
58 2
7 29
ra ma
s as
Re direc
F ranc
ti ÄĿo
f ort
a be
4 39
aÄ ¥
6 89
Ġ1 21
» Ð
ant isto
ko mi
´ ,
Ġ1 797
âĢ Ŀ),
li mato
fa co
z ia
P IV
on al
L er
O rg
re to
Ġ1 827
men aÅŃ
19 97
¦ âĢĿ
ro lo
B en
G vin
en du
7 41
ik e
o y
6 75
7 52
gran da
a ks
rin de
5 29
c ti
al su
da do
d y
blio te
Ġ1 834
R ila
p aÅ
ni t
Tra fiko
36 9
ut on
ti lo
h m
? Â
ri bu
i as
v eno
su be
6 74
4 31
fri ka
6 70
ul p
20 01
d Ã
Ð ´
20 17
Ģ Ĥ
Sa ks
ent ra
47 2
19 90
d ri
K am
lin gva
20 11
20 13
la l
o ol
c ar
s po
N ia
g t
Pr iskribo
ol on
R ig
no me
j es
ra in
6 64
Ġ1 41
ed on
n am
p id
C on
is s
j parte
ple jparte
lan da
ej oj
lo ro
H en
kaj n
27 9
7 31
fi ta
io d
6 49
pa g
la u
z k
Ġ1 536
te le
P aÅŃ
19 95
ur f
- "
minist ra
19 99
56 9
u ci
di nt
fa cil
ta ge
a vo
32 9
e de
te s
es cep
Ġ1 415
g ano
ac on
j en
Ġ1 831
ÄĪ ap
an co
de x
ni f
a x
dek st
er enc
si ko
06 9
b b
A Ã
Ãĩ iuj
v es
Ġ 01
R iko
lo ke
5 39
mi on
ri ti
fer enco
ti kaj
a ul
34 1
lu st
02 9
R om
Ã Ĺ
Ġ1 838
ra zi
z ic
65 9
su pra
s ame
r un
t c
P an
I d
ig in
S T
nu ntem
05 1
ma i
er is
ra Ã»
me tra
35 9
in on
f ero
k iam
7 79
Ã Ł
ä º
d p
pro du
ko mu
Ġ1 91
la do
Ġ1 789
66 8
lu e
i va
J O
I K
Ġ1 61
45 1
er ik
st el
re e
li broj
h s
pre zent
Ġ1 788
ro lan
us en
ra st
S C
sk ultu
i per
Ġ1 31
n ia
en int
ac e
b ul
di ci
to ko
z am
ti po
st ad
ra toj
g na
Ba hÃ¡
em or
K E
u Äī
gor io
t le
s g
br on
st ig
o Ã
® o
Ġ1 778
Äī ef
nt en
Ġ1 620
de c
g ma
76 9
S om
E E
S cienc
Ġ1 750
Äµo ro
a bl
46 2
me d
33 9
uz eo
Ġ2 31
la go
id oj
ig ar
N ed
à µ
Li terat
elk foje
in su
x u
g el
ÄĪ apitro
cide nta
B re
´ a
O kaz
h ej
cide nte
Ġ( Â«
pan io
ch en
i mp
Ġ2 61
l ist
f ol
ra va
um b
u ar
w al
Uni versi
mo kra
T ute
ver s
o tu
ka t
S O
lon g
. --
ran o
Ġ2 21
Ġ1 786
Ġ1 520
ka ÅĿ
7 49
44 9
o ut
ol v
ÄĿ on
Ġ2 01
V ar
h w
h ano
19 96
! ).
/ .
ing en
ko loj
27 1
ÅŃ p
] ]
Mo vado
kt er
ni ka
na b
U S
M T
aÅŃ e
35 1
W il
e at
g ig
ar is
) -
pro duktado
ig ure
le ks
46 9
6 39
in ci
Â Ķ
Ef ektive
Ġ1 603
t ano
te mp
vi c
N ac
per e
J os
to do
h am
er Ä
ic e
B ad
ar r
oj ekto
di men
Ġ1 51
6 41
Ŀ :
ta go
. ;
} .
İ ,
âĢ İ,
z Ã
es cepte
der lan
04 9
ig n
( [
Ant aÅŃe
emp lo
no mb
ok e
va li
ro to
ÄĪ eÄ¥
5 41
.. .âĢĿ
ur an
ur u
ti ma
Ġ1 832
er sa
47 9
ri v
Ġ1 526
er fa
un s
mi k
tegor io
His pan
5 49
âĢ ¦âĢĿ
u u
Ġ1 605
ne jo
ki g
pa str
P lan
u kt
b lu
N eder
ÅĿ i
em pl
eg i
Ġ2 51
7 39
on et
ko s
he im
or tis
77 1
37 1
M aj
v j
h y
ran daj
ar du
Ġ1 525
ku me
28 1
or v
T A
- â
el don
19 98
z z
â Ĥ
Ń z
âĢ Ŀ:
em bro
m d
ne der
08 9
E Ã
V or
cia le
I A
kon gres
or moj
u ch
c ri
I L
Pre cipe
ÅŃ rop
ing v
ku lo
38 1
L is
su pre
am br
6 62
T ag
ond u
56 1
li ko
ri Ä
to b
48 1
er ka
er Äī
¦ ]
kon omio
kto ro
pre z
er ojn
V iv
n ek
his pane
67 3
z et
lo p
G re
te st
H on
Ġ1 606
le kti
pi ta
k ru
A I
Ġ1 822
Äī iuj
lo z
s or
n Å
mu ziko
fer enc
M ez
ek toj
07 9
A le
no ma
¦ )
ru ado
D iv
Ġ1 71
int erf
tr ans
stru ado
k cio
19 87
ut u
? Â»
er vo
33 1
a vi
06 1
o de
Ã ½
j d
ri vero
Ġ1 420
7 51
6 31
ka de
ti nt
pro fita
nd am
as p
pr onon
ver sio
Å ĳ
? !
z icio
du ki
eg e
6 82
it oj
te ma
Vid indaÄµoj
kur so
r ul
te ko
st ar
V oj
ec a
eg u
m pa
ï¿ ½
z ar
b st
p x
A Ã»
In for
ul ti
d j
me di
r w
Ġ1 715
as oci
gra mo
36 1
un is
U EA
Ġ1 556
Ðµ Ñ
for ma
la co
er faco
int erfaco
Ġ1 648
T ek
an ÄĿo
.. .).
7 61
se nt
p ul
in al
ti t
B an
u h
A P
Ã ī
âĢ¦ ]
[ âĢ¦
ig ni
S it
ÅŃ lo
- âĢ
en erala
K elk
is ch
un aj
[ 
lat ina
re sk
5 31
on or
Ġ1 720
b du
B ud
kt an
44 1
ist ro
Kon stru
ar don
ina to
ra ke
C om
le v
s w
Ġ1 757
P aro
er lin
An stataÅŃ
Uni versitato
pe dio
k anto
ek sp
T ut
m it
n es
Ġ1 604
iv al
¸ a
( '
ant 
57 9
t ul
le z
t b
Ġ1 406
mal dek
in du
03 9
Äī u
# #
E G
Ġ1 756
Bal daÅŃ
Ġ1 427
on ga
m ond
ol an
as ki
ik oj
S inj
vi ta
55 9
07 1
04 1
ant an
un v
Vikipe dion
ar deno
Ġ1 618
for m
ÅĿ t
en si
va k
an z
Ġ1 607
n askiÄĿ
eo log
al men
in fo
e ve
E g
am ilio
F eli
ez ul
57 1
id er
p om
C E
Ī ŀ
p m
on ojn
A L
âĹĭâĹĭâĹĭâĹĭ âĹĭâĹĭ
Åľ ajn
v iÄĿ
Ġ2 41
19 94
l di
ma g
W or
Ġ1 792
Ġ1 608
c enco
z emp
a pi
j am
ra te
K Ã
ren konti
ta mino
R est
iÄ Ŀi
es io
. '
or mal
tr on
Ġ1 619
ha us
65 1
de g
s lo
ra u
Pa lat
kur soj
eno ve
er go
03 1
Ĥ Ñ
c m
ÅĿ anÄĿ
an jo
47 1
la va
et ro
Li cenco
us a
ci i
ko do
io lo
Ġ1 594
Ð¾ Ñ
.. ."
ro man
S im
b Ã
Ġ1 610
âĢĻ âĢĻ
u zo
l isto
s it
en p
i x
B Ã
su lo
V ol
le to
on j
A lt
ik an
S on
s x
C Y
Ĥ ¬
67 2
6 79
46 1
19 91
ser v
ist ino
ba ra
z ono
ta men
Ŀ ar
ta c
Z o
Ġ1 405
as ocio
S ig
em in
I T
Ð ¹
âĹĭâĹĭâĹĭâĹĭ âĹĭâĹĭâĹĭâĹĭ
li fe
Ġ1 745
pa ÄĿa
mb ra
v ok
k ist
ur t
ÅŃ z
f ia
T l
Â ³
M art
ol st
kon t
po lo
N om
al io
Ã ¢
âĪ ŀ
N acia
AN T
gv aj
erman oj
zi lo
M os
de p
la bo
19 89
ol d
te d
ra dio
mu ni
ar ma
an ier
ar ita
ÄĿ ant
S tr
ta ÄĿ
z en
* )
Al done
mi koto
di oj
t to
Ġ1 424
a taj
gi aj
M il
S S
Pa 
Ali flanke
stu li
, Âł
f ab
g me
am u
P D
li mu
i co
D ia
M en
Ġ1 598
Ġ1 417
st ato
r bo
08 1
A c
z 
vor te
ci dent
aÅŃ lo
ns u
R im
k li
K A
Ko lekto
ti taj
Ġ1 527
Ġ1 519
lan de
s mo
P R
Ġ1 755
Ġ1 590
po po
t ant
is tr
a de
daÅŃ rin
er koj
6 61
B il
na ti
C O
Ġ1 747
Ġ1 524
g os
at an
st f
j is
Ġ1 596
s ra
Ġ1 746
Ġ1 713
ÅĿ ajn
s ojn
L eg
66 9
T lu
M is
A M
ku time
d ono
B lan
55 1
19 93
u er
N O
¤ a
stuli mu
Tlu stulimu
Ġ1 626
di t
! ,
Ġ1 765
bl anka
pi te
a pe
ra pid
Ð½ Ñ
ru s
il ko
Ã º
Ġ1 407
Ã¡ n
ver sa
str io
lin o
pi de
ad oj
C am
Ġ1 717
anta ÅŃe
w or
e en
is v
ra keto
w ski
Ġ1 320
ar den
ko mer
lon ge
ab ri
Ġ1 437
Ġ1 656
Ġ1 550
Ġ1 426
ng l
er mi
mi la
re l
x t
Ġ1 386
E bl
ia man
ig ra
om an
p ta
Ġ1 403
Ġ1 516
Ġ1 220
Ġ2 600
pre mio
at ur
daÅŃ rinde
so cieto
P ara
st iv
u bo
li r
no li
) ?
Jo hano
P ER
I tal
h af
ek re
or b
Ġ1 708
Ġ1 018
ant ojn
F est
an go
19 33
/ âĢĿ
E Ã§
ak tiv
an ej
ie t
p ie
S Ã
§ a
His panio
Ġ1 783
o kaze
M od
pi on
at is
le nt
¼ Ð
Ġ1 416
te kst
Pro ble
ing vo
ta ga
el le
Äī j
] ).
temb er
Ġ1 637
Ġ1 419
h istorio
ar ino
te b
G ar
å ı
int aj
e ga
ti go
f ur
or mi
H al
S I
Ġ1 707
li tika
ad t
ÄĿ er
el g
Sa ksa
ER A
º Ð°
d ojn
o per
va z
ia di
r st
y t
K elkfoje
ek ster
er va
un um
nt in
v anta
po k
N ek
el en
ko t
F la
Ġ1 534
Ġ1 408
Ġ1 113
bur go
g ista
* .
M ek
n ar
pre mion
Ġ1 785
Ġ1 397
Ġ1 515
ent r
ur k
p y
è ¯
( ?
ri late
Ġ1 024
es pri
ta b
´ an
y r
Ð ³
ð Ł
Ġ1 714
Ġ1 425
esper ante
z ado
et on
vi tamino
Ġ1 842
Ġ1 595
Ġ1 410
de pen
z amen
f id
} ,
Ġ1 627
Ġ1 535
Ġ1 704
Ġ1 506
Ġ1 418
u ist
is h
d g
O fi
a ki
19 05
at h
al to
Ġ1 616
us io
g ist
ŀ â
19 30
g ad
R I
Ġ1 703
ni g
Å Ĥ
Ġ1 802
Ġ1 387
Ġ1 623
ÄĿ 
men c
I ru
s pa
m j
m r
Ġ1 625
L ou
lan doj
u ale
58 1
e ka
P h
ĺ ¨
G I
ed onio
Ek ster
gu st
ar bo
S lo
v ri
Ġ1 644
Ġ1 586
Ġ1 597
Ġ1 215
log ia
il le
E p
ðŁ ĺ¨
ðŁ ĺ
in go
om m
st iÄ
Ġ1 690
Ðº Ð°
Ġ1 725
Ġ1 510
ni kaj
ÅŃ v
di ka
B E
Ġ1 737
Ġ1 350
m ont
ga ze
tu g
me o
ri la
ðŁĺ¨ ðŁĺ¨
Si mile
Ġ1 436
B ordo
b ach
Ġ1 699
V enu
aÄµ on
ul ojn
te f
en in
Ġ1 537
Ġ1 545
Ġ1 314
su p
it t
is la
E U
Ġ1 734
Ġ1 356
Ġ1 394
Ġ1 617
Ġ1 318
is taj
ni gra
ir te
u jn
ig an
na d
H Ã
co olio
Ġ1 735
Ġ1 588
d ul
fin aÄµo
Mal gran
M ask
me nte
E li
T or
F R
/ )
g mail
Ġ1 396
Ġ1 310
bl on
y c
âĪŀ âĪŀ
Ġ1 758
mu zik
D istri
Ġ1 514
b ir
al ut
ur on
s el
i ar
to w
Ġ1 423
Ġ2 100
an alo
ÅĿ a
B ir
ES PER
al menaÅŃ
Ġ1 695
era li
S ian
U N
jar cent
le gu
ri ch
men s
h um
ti mo
! ),
o or
y p
Ġ1 487
Ġ1 523
Ġ1 624
Ġ1 517
Ġ2 024
ar ig
v ik
la ti
G ro
S emaj
Ġ1 533
Ġ1 494
ro up
ul on
un io
li ÄĿ
ka u
as en
t ta
Ä´ anej
gil on
ER AN
N ord
ch w
or ino
rg an
on toj
ru is
g ant
19 12
ro a
N U
Ġ1 748
Ġ1 647
Ġ1 307
Ġ1 393
un kci
19 14
Ġ1 723
N ec
ut m
e il
æ Ī
emaj no
Ñģ Ðº
F und
id ant
v ul
k y
Ŀ ;
Ġ1 645
e ÅŃro
Ġ1 015
k ojn
ro li
or gano
Ġ1 710
k eo
B ru
per o
ig is
R os
temb ergo
Ġ1 593
nu ntempe
K ultu
pen de
ur son
R iv
19 79
om pa
ni ko
S 
f akte
Ġ1 325
Ġ1 412
Ġ1 219
g ine
al anta
fi ce
) âĢĿ
n ÄĿ
do l
er ti
ä »
pro fes
Ġ1 305
ie le
T I
N I
Â º
å ¤
v Ã¡
ra Äµo
ste in
a pa
r do
W al
Ġ1 308
Ġ1 225
G alo
k loj
ve j
da ta
un c
19 20
ç ļ
K O
Ġ1 399
S tra
o bl
o x
I E
re gista
Ġ1 345
ja pan
da to
et t
D om
Ġ1 733
si on
t ut
19 18
P A
j b
Kal edonio
Ġ1 839
Ġ1 687
Ġ1 499
ev al
f ino
Ġ1 754
AN TO
far 
enda ro
Ġ1 365
Ġ1 404
Ġ1 505
lo zo
am pi
ma ter
b ol
g ne
mi z
Ġ1 686
un kto
ism aj
T om
Ġ1 705
Ġ1 395
Re ven
ud an
m us
ut s
ra le
er ko
( !
Ġ1 712
Ġ1 726
Ġ1 398
Ġ1 414
a ÄĿo
t he
19 86
F lu
ran k
e tr
Ä į
Ġ1 693
Ġ1 706
Ġ2 115
ar tiko
ven int
k rat
p ino
nd i
le gil
Ġ1 727
6 81
L Ã
¸ Ñ
Ġ1 317
k isto
V int
ÅŃ di
lo d
askiÄĿ inta
Ġ1 326
P ier
R ob
s end
an ce
i pl
19 39
ta le
ka to
in st
Â ª
Ġ1 697
end oj
li go
N ig
F il
ul g
âĢ ľ)
Ġ1 587
Ġ1 513
Ġ1 615
te lo
´ Ð
L O
Ġ1 493
ba zita
ad min
c ist
il la
C an
19 19
or gani
Ġ1 316
ek onom
on ata
ub er
e bo
Äī jo
Ġ2 66
M ic
A rt
ni ve
ad ra
p ur
li ci
ÅŃ l
k h
Ġ1 724
Ġ1 324
Ġ1 017
19 88
Ã ¸
M L
p aÅĿ
Ġ1 306
ikipe dio
iÄĿ on
D ank
om ita
ma o
z as
Ġ1 694
Ġ1 718
Ġ1 413
Ġ2 114
Ġ1 120
Ġ2 400
res on
al ter
ir d
19 52
per ni
pe g
C la
J ar
ÅĿ tatoj
Ver ÅĿajne
Ġ1 334
Ġ1 614
Ġ1 612
l ojn
gr u
on ne
de to
ar y
P L
Ka tegorio
Ġ1 636
Ġ1 613
Ġ2 119
... ]
R ap
im ar
Ġ1 677
Ġ1 304
Ġ1 020
p end
li ono
ti uj
ro la
j Ã
Vir tembergo
le gilon
Ġ1 214
Ġ2 116
] ),
a er
O R
: \
G Ã
ha usen
TE JO
A parte
Ġ1 224
Ġ1 518
ÅŃro po
kc es
av en
lan ta
po ko
b it
le o
m y
te mpo
Ġ1 744
Ġ2 025
Ġ2 120
ja raj
67 1
19 80
ra ran
ka ro
n la
bi blio
Ġ1 736
Ġ1 433
Ġ1 223
Ġ2 118
ik on
A na
al h
ľ ).
R on
Ġ1 013
or ld
ter na
19 85
A X
Ġ1 544
poz icio
19 34
b ran
ar me
es c
H am
Åľ 
Ġ1 217
P ers
ru po
iu s
ri an
h aj
Unu 
sta te
v at
[ ..
an st
Y o
E C
Ġ1 650
Ġ1 296
Äľ uste
ig h
å ®
F D
Î ±
- .
âĢ Ŀ;
 ino
Ġ1 599
Ġ1 295
ni ty
ist er
ar ka
j st
» Ñ
Ġ1 388
Ġ1 315
Ġ2 113
Ġ1 115
ling va
kti ta
P en
Ġ1 435
Ġ2 618
f ranc
Ġ1 014
ta loj
ra pi
ta tu
er se
er ma
******** ****
V est
re zi
19 44
s ar
Ġ1 719
Ã¡ r
sk ri
er z
f d
M P
ESPER ANTO
Ġ2 506
Ġ2 023
Ġ1 319
gi taj
ÄĿ ojn
le jo
p al
p g
Fin fine
Ġ1 538
sp iri
fin aÄµ
v ena
ur ismo
rg ani
ig no
z ur
C A
E blas
Ġ1 548
Ġ1 634
eo logio
Ġ2 117
eri ka
to roj
19 57
il an
un la
" (
Ġ2 608
Ġ1 497
la ÄĿo
ja ra
Â §
Ġ1 584
Ġ1 738
Ġ1 019
ef aj
19 36
ar de
Ġ2 624
Ġ2 525
Ġ1 119
en ber
mp u
ic a
19 70
kon se
at en
do v
al ko
âĢ ľ).
[ 
Ġ1 665
Ġ1 698
Ġ2 026
Ġ2 519
en so
19 23
A ka
ra ti
D am
Ġ2 505
Ġ2 326
Ġ2 623
Ġ1 218
o log
iv ers
ÅĿ ip
re o
en ko
er in
% -
Ġ1 696
Ġ2 586
Ġ1 213
Ġ2 518
Ġ2 300
ier re
Ġ1 012
O ber
Ġ1 016
po zi
19 08
or on
¼ ī
pa rolan
ï¬ ģ
Ġ1 528
er lando
uti ma
ra ste
ib li
lan ka
19 37
ia t
O d
H omoj
Ġ1 390
Ġ2 526
Ġ1 118
ou is
ta Äµo
bl an
K ol
, .
à ¥
Ġ1 676
to lika
Ġ2 527
Ġ1 323
Ġ2 619
am bro
de jo
k tr
C or
Z i
Ġ2 426
el es
19 24
an Ã
Ð ļ
P S
Ek zemplo
st udi
Ġ2 656
Ġ1 716
Ġ1 498
mal gran
v alo
ter a
19 81
u es
lo t
en ri
st en
pre skaÅŃ
Ġ1 490
Ġ2 604
Ġ1 495
Ġ1 297
Ġ2 620
Pl enk
ej ro
man n
F E
d b
Ġ2 427
Ġ2 356
Ġ2 524
Ġ1 010
o ok
ru kt
F ru
19 31
nd a
al en
: \"
TE LE
Ġ2 605
Ġ2 325
istor ia
si mp
na tu
in us
sp or
c ek
Ġ1 821
kci denta
Ð¸ Ð
Ġ1 434
Ġ2 607
Ġ1 294
Ġ1 110
be lo
po la
F ri
e ar
g d
VI D
Ġ2 637
res oj
me nta
ve c
mo s
P on
li bera
\ ";
Ġ2 517
ist ojn
ra ve
al or
Ġ2 523
era lie
kaz is
sp on
O S
Be daÅŃ
Ġ1 450
Ġ1 287
Ġ2 626
voj o
od er
ter ia
re di
ri me
Ð ¢
¼ Ł
o fic
Ġ1 117
N askiÄĿ
il m
os i
or ek
K la
w ar
³ n
æ ľ
Ģ ĭ
LE V
Ġ2 225
Ġ2 520
K T
LE VI
Ġ1 496
Ġ1 116
Ġ2 220
st itu
19 06
ÄĿ el
Ġ1 688
Ġ2 215
tal io
ch af
i ÅĿ
ÅĿ ta
a ge
re jo
19 35
li oj
io z
Ð ±
Re produktado
Ġ1 633
Ġ2 314
Inter tem
ze b
ur ba
m bo
19 47
i ran
et io
la ma
re u
¸ ia
Ġ2 537
Ġ2 627
Ġ2 595
Ġ2 099
Ġ2 324
Inter 
B ur
g ie
s om
lo b
H or
n in
y m
M S
bliote ko
Ġ1 299
kt uro
er vi
re v
c to
E P
Ð ¿
anej ro
Ġ2 556
Ġ2 097
Ġ2 603
Ġ2 625
Ġ2 514
de kst
l ern
kv il
k vi
va st
19 50
19 25
iper nity
mok rat
Ġ1 512
Ġ2 418
Ġ1 114
q ue
ci is
f lo
âĢ İ
z l
Pre zid
Ġ2 096
Ġ1 298
Ġ1 216
Ġ2 315
int oj
be to
ent oj
sp i
ar lo
re b
v g
Ġ1 646
Ġ2 110
fe sto
la ment
Li ber
don u
om ere
nter es
b ib
19 10
G M
C H
Ġ2 095
an ojn
do ku
an kon
19 13
am s
R Ã
Ġ1 635
Ġ2 437
Ġ2 587
an ado
ec es
ra de
S ko
_ {
u Ã
ne derlan
Ġ1 445
Ġ1 025
ko mis
le ment
19 73
er ie
D el
G E
( )
Ġ2 487
er voj
ble m
ze to
ut oj
er mo
E ti
A i
Ġ2 597
Ġ2 224
la man
B ul
j h
Ġ2 098
or ton
t isto
ar toj
la to
b v
Be daÅŃrinde
Ġ1 841
Ġ1 465
Ġ2 606
Ġ1 312
Ġ2 510
tiv aj
La Ã»
r Ã©
ba z
f ano
to pr
en ig
f m
Ġ2 513
t 
Sa int
ra be
a zi
e fo
19 29
ri mo
Ñ ĭ
Ġ1 492
Ġ1 286
Ġ2 093
Ġ2 094
Ġ2 319
ka pt
v era
v ino
19 46
z ist
ik is
t g
Ġ1 026
Ġ2 594
Ġ2 223
sk rib
ch er
al j
. ?
Ġ1 780
Ð¸ Ñ
Ġ2 112
Ġ2 320
Ġ2 345
or din
v uo
br ojn
est f
por t
R ol
ki el
a kon
it h
al z
Ñģ Ñ
Ġ2 317
çļ Ħ
Ġ1 095
Ġ2 425
re ÄĿa
ru ÄĿa
ila te
r ch
19 32
os ed
il do
om ia
D es
ro ko
: )
liter aturo
Ġ1 313
Ġ1 210
li tiko
v esper
l Äī
D L
ven inte
Ġ2 593
S vis
esper e
mp ar
19 26
at er
E c
Ġ1 293
Ko mento
te kt
di b
mo lo
µ u
ran kvil
******** ********
Ġ1 290
Ġ2 386
Ġ2 408
cent a
ona to
19 78
a ku
ve lo
ve g
ar ie
la Å
Ġ2 598
La bor
mon taro
d ante
an sta
po ÅĿ
ar ba
ita to
man o
19 38
em po
il in
ek st
z it
A te
p io
m st
: [
pro gramo
Ġ1 212
Ġ2 316
Ġ2 415
D eno
.. ...
ÅĿ an
F an
Ķ â
Ġ2 495
Ġ1 023
Ġ2 515
ak ce
i rt
p ik
as is
? ,
Ġ2 498
Ġ1 093
Ġ2 613
ers aj
es uo
af oj
kon s
os a
proksi mume
Ġ1 288
Ġ2 497
le ft
19 07
V an
z n
Ã Ĩ
de mokra
Ġ2 596
Ġ2 599
ista ro
Ã¡ s
ki lo
et h
le y
r ti
ri to
w er
A h
Ġ2 417
re ÄĿo
k res
pre s
s ano
st ok
est raro
VI DO
Ġ1 488
f ondi
m ur
on ia
K in
V A
Å Ļ
S B
TELE VIDO
Ġ1 684
Ġ2 433
Ġ2 419
ra vaj
er ar
Ķ âĢ
Ġ2 405
Ġ2 318
Ġ2 420
us ona
ÅĿ in
on ita
ic k
A per
l un
Ã ´
¶ n
D enove
ko mpren
z aÄµoj
Ġ2 307
Ġ2 304
Ġ2 494
Ġ2 423
Ġ2 516
kon fer
19 74
h id
ul ar
me tr
tr oj
¥ io
ç Ķ
to wski
Ko towski
Ġ1 728
Ġ2 634
Ġ2 404
Ġ2 306
F ilo
vi ce
A vi
k et
ro r
* ,
Ġ1 764
Ġ2 545
Ġ2 406
Ġ2 214
t end
ma ÅĿ
bo ro
z ig
v ed
M ad
r me
bi bliote
Ġ1 770
Ġ2 365
Ġ2 334
Ġ1 112
iv alo
ad en
es as
oj as
Li bera
me mbro
Ġ1 428
Ġ1 096
Ġ2 407
am baÅŃ
Ġ2 217
c ks
I M
Ļ )
¦ .
: .
P atro
Ġ2 496
Ġ2 308
est fal
ko lon
R ic
per is
19 21
B la
K U
Ġ1 585
Äī eÄ¥
Ġ2 305
C ast
ra ba
ki r
it z
t ti
R an
Ġ1 628
men sia
Ġ2 633
Ġ2 445
Ġ2 403
Ġ2 499
Ġ2 219
h us
nt is
Ġ1 730
Ġ2 636
Ġ1 098
Ġ2 416
ri pt
L and
ri ce
M ac
19 28
di f
le an
P in
an in
er w
æ ĺ
Ti ujn
Jo hn
Ġ2 434
Ð½ Ð
Ġ2 610
L ud
19 56
do m
er di
ko d
A e
G N
( +
ler nejo
Ġ1 760
Bi blio
Ġ1 530
Ġ1 638
T enda
Ġ2 617
Ġ2 218
rop aj
fe st
as h
Pro fes
Ġ2 647
Ġ2 436
ma tiko
ajn is
H ej
19 27
K va
Proksi mume
Ġ1 809
po ze
zi de
um on
in do
u en
Ģ Ģ
T endaro
Ekzem ploj
Äī emi
Ġ2 493
c tion
N askiÄĿis
al fa
h ara
sk Ã
kon d
g Ã
Ġ1 097
Ġ2 310
b and
ent aj
19 65
g ol
y d
G G
Ġ1 678
a gado
Ġ1 099
Ġ2 216
ko lor
ter o
ek on
f ro
L G
Ŀ -
pr ojekto
d iÄĿ
19 77
19 62
os s
ro ma
19 17
e aj
I O
f p
Div ersaj
A kade
Ġ2 588
w ald
af ol
19 41
em an
no mi
E M
Ġ2 635
ra elo
pro ble
du kt
pa bl
af olio
liber afolio
Ġ2 287
t eno
di nte
an ca
e sta
ÅĿ e
g nu
ne t
me in
m iÄ
o in
to g
is d
F A
Rig ardu
Ġ2 387
ec h
19 49
19 84
re st
19 11
Ġ2 536
ku ment
al lon
ch i
tu d
da Ã
os k
di an
en j
A D
A C
ta goj
sa la
19 67
da e
di da
Ġ2 488
end ar
k est
k lin
t lan
ol f
m no
E D
Ġ1 438
Ġ1 094
Ã³ n
e zi
us k
19 60
Ġ2 533
Ġ2 534
 aj
va Äµoj
stru 
19 04
A po
io do
Ġ2 212
ÅĿ tato
ko log
u ig
ri aj
ar p
i q
c n
Ġ1 829
Åľ ajne
Ġ2 424
In stru
la taj
est ro
19 66
ra da
p n
B A
¼ Ī
E F
Ġ1 448
Ġ2 213
dor f
o kaz
.. .,
v em
ri ÄĿ
ra lo
ma la
g am
Ã ł
' !
ç §
Ġ2 616
ez a
t ino
an im
A kt
i vi
ïĿ ¯
Ġ2 614
Ġ2 615
end or
c ol
§ o
M B
Os etio
Ġ1 801
kci dente
pl ena
E vi
u pa
le mo
Ġ1 791
Sek vis
di cie
no vaj
ek tiv
ut mon
ov o
s ik
I C
Ġ1 580
Ġ1 811
Ġ1 722
Ġ2 313
z org
B ata
K ru
as c
Ð ¡
urn al
Ġ2 286
de mio
El don
ha vo
L isto
O rd
t us
19 48
R ek
el m
ti an
An ÄĿel
pro toko
Ġ2 465
Ġ1 090
Ġ2 323
Ġ2 413
ud his
st era
on ado
ch a
E du
men ce
ter oj
om in
z m
v k
d w
Ġ2 448
Ġ2 512
om erio
si ero
st us
ru me
r ÄĿ
C as
Kuti maro
Ġ1 740
VV V
Ġ2 295
W est
S ol
il h
ant in
lo me
Ġ2 394
fu nd
art en
B as
ja pane
Ġ2 412
pre ss
ec k
o toj
em on
w el
S K
f Ã
Is raelo
i ploj
Ġ2 395
Ġ2 397
Ġ2 399
da Ã»
kt is
pa c
o pe
ci k
aj b
f s
Ń -
gres on
el eso
Ġ2 296
Ġ2 210
his ma
ent in
ci z
t Ä
Ð ·
= "
Ġ1 683
Ġ2 299
Ġ2 410
ir in
er ic
h il
re Å
te am
D A
bib lici
 biblici
Ġ2 645
Ġ2 398
Ġ2 414
uri on
mo log
ond on
L es
ta u
I P
Ġ2 396
ment on
Ì ģ
ek zamen
Mal granda
ond uso
terat ura
Ġ2 544
Ġ2 293
Ġ2 393
Ġ2 297
ber to
M ont
h ol
le ta
r le
er h
G urion
Ð¾Ð ²
Ġ2 294
Ġ2 298
as eno
ch o
am m
z t
Ġ2 535
Ð¾Ð »
st ara
bo ra
vi do
fi ka
19 09
ur in
I R
Ġ1 763
Ġ2 612
to pren
ok ejo
ste lo
ta roj
anta ÅŃ
ge me
J ac
ran te
om aj
ia do
ia lo
19 22
R h
Ī Ĵ
P Ã
am pion
vi dente
Ori enta
p ms
cek pms
eb la
al ono
p us
di l
ma Ä
en f
c p
z s
Ġ1 685
kon duk
u cio
c isto
F lan
man d
19 82
19 59
b y
t w
K n
Ļ ¯
Ġ1 543
ki ja
am po
am j
D er
T on
par lament
hun gara
Ġ2 644
vor taro
ula ro
fi ÅĿ
du ka
vi ko
de a
am er
te to
st or
to ra
ro Ä
å Ľ
a S
toko loj
Ġ2 646
Ġ2 090
sta 
M ari
19 83
ed oj
to t
) }
Ġ1 660
Ġ2 435
ba tal
af oje
ik so
pe t
c re
Ń o
P s
ko vr
a ho
is u
D I
: |
an stataÅŃ
Ġ2 312
k elkaj
stru isto
ar ojn
v anto
di gi
is lan
e vo
ul io
K ant
am aj
la o
Ð Ĵ
N R
EG I
end orf
ra Äµoj
b ere
ant u
r ma
as ko
E la
M F
Ģ º
IN EGI
Ġ2 548
so cia
1 000
ac k
b et
te me
s li
on y
versa la
Ġ1 422
pe cioj
u ment
m ona
ina la
k taj
est er
ÅĿ u
gi to
di v
W in
U R
kur sojn
ma ten
m eri
id ante
19 76
j pe
Å ¬
h b
¼ n
Kon ser
s uloj
per son
ov aj
19 55
il v
V es
no lo
Ģ ģ
Ġ1 522
no libro
z ento
el sen
ec on
f le
or c
C C
Sc ript
ti tle
ci enco
B ona
an ga
og le
p si
en se
ran Äī
P G
Pre zidanto
ÑĢ Ð°
ob er
19 58
pa do
l ut
st il
me z
Äī es
C ro
V u
Bud hisma
Ġ1 674
Bon volu
ne ces
ze ble
du be
ÅŃ ri
S m
gres oj
ut sch
en ez
ont ri
ce jo
or ve
il mo
le l
Ë ĺ
A Ä
Ġ. :|
po litika
kos mo
-------- ----
Po vas
fal io
Li bro
id 
P ub
) ".
va ta
n el
to f
j peg
Kel kajn
nas kita
tu re
ie st
h es
Å į
is tiko
oc ia
ÅĿ to
ia Äµ
lu o
ko po
ur p
mi lo
la st
O ra
M N
p f
Vest falio
va Script
Ja vaScript
Ġ1 680
Re ÄĿo
ar mon
ba b
19 40
em is
um f
C al
no k
D Ã
É Ļ
Ġ1 540
mp uti
za ÄĿ
Â» .
or man
li ga
te at
l ka
O M
Ë Ī
âĢ Ŀ-
Ġ1 753
G rand
kt eri
Äī aj
19 16
no mata
pr ojek
ÄĪ inio
Sam jare
cide nto
io log
L ong
v ort
ial aj
Äī ev
w eb
e am
te a
u as
_ _
G F
G NU
aÅŃ pom
Ant aÅŃpom
Ġ1 782
enb urg
kul tur
gu sto
um ero
int o
ut t
f iÄī
va ra
j na
di lo
dek stre
Ġ2 388
mul to
art in
mal e
est is
j ud
19 69
e ut
v ant
s y
y u
J i
Ġ1 630
kul tura
ski j
en ha
ch t
vo le
ki v
on at
es ia
F al
A G
Ġ1 675
Ġ2 288
ing va
H av
ondi nt
pa st
ur io
di la
Pre ÄĿejo
Ka rakt
Ġ1 622
Ġ2 590
Ġ2 350
se c
um u
M es
k j
' -
P O
E I
:| :.
Ġ2 584
in ario
et uri
ar ton
e zo
ara j
zi ka
ac a
ra kon
lo ko
V Ã
Ġ1 643
Tia maniere
st ac
ondi ta
k it
el la
K le
en v
19 00
ar keo
Ġ1 663
ofi ciala
Ġ2 490
ord in
f ara
ru sa
kt on
19 64
ur d
W ik
F li
c q
Ł æ
@ @
å Ĳ
da kto
ani zo
me ze
or ga
19 75
ut h
19 03
li ki
ra la
" !
v l
la Äµo
re gu
Ki pro
mp li
ur c
k no
i in
M R
j ekto
tiko lo
Ã© n
zo f
ov j
ist on
re co
F un
le d
or r
Ġ1 664
Ġ1 781
Ġ2 648
stin io
Hol stinio
z aÄµo
aÃ »
l ter
V ic
iÄī er
d ad
P ie
h io
y k
, '
' ;
A K
B R
âĻ Ń-
E timo
per sona
l men
oj ig
z ki
z ant
le a
z iÄ
M am
il 
V alo
ers on
lu v
ra ci
? ).
H in
O t
Ĥ a
I F
Ð» Ñ
cienc oj
?? ??
re kto
S oc
ra por
or ge
i ja
im on
mk e
19 68
on ig
i um
g it
do mo
en na
ra ko
mu zeo
ntem pa
ta gan
ri par
eran te
s ak
ra fo
lan o
D ok
ks an
de co
po t
tr in
de oj
Î ¿
J E
el send
tra duko
n orde
ask loj
w ord
k ani
ra cio
T eo
us s
ru p
me l
ti d
a ar
y an
' ]
R enkon
?? ?
e ÄĿo
g anta
mk est
so ci
M et
mo v
Ń m
§ e
Ġ1 532
ÑĢ Ñ
. Â«
h ard
ber t
ri taj
m ono
ks on
ki te
do ro
ti e
io s
O A
Ġ1 632
Ġ2 438
pte mb
P ere
to rio
es eg
er kon
el b
x p
Ge org
âĢ¦ âĢ¦
Kon fer
er ec
em oj
c em
il aj
j ul
w n
Ł e
c y
me todo
z etoj
z aÅŃ
ok to
a el
å ·
y Ã
z h
Ģ ł
iu kaze
me mor
h im
E ks
18 87
M ik
legi to
mk esto
for mato
und o
ri va
po g
c ul
g ur
z y
fer encoj
erna cia
raÅŃ e
enc aj
on go
al va
el t
" ..
O J
Kont raÅŃe
ga zetoj
Ġ1 743
Unu iÄĿo
ro ba
im b
vi lo
ve co
nt ig
h em
on as
e as
_ ,
A j
¼ c
Ð Ķ
on cu
ag oj
ej m
ru c
mi oj
ka i
Ġ" ..
la z
b ia
er as
ar z
Å ¾
O L
D F
A B
I v
mon deto
Ġ2 528
Ġ2 428
onon cu
ar ch
al sa
r mo
en st
U l
poze ble
Ġ2 628
K las
jar ulo
ul u
f os
ÄĿ as
ro st
e Ã
Ġ1 330
m ultaj
mi laj
u ba
N ok
mp on
c us
j et
pe nt
S ti
nt ri
f ta
ro Å
U k
G MT
Ġ1 560
Ġ1 592
ten e
p are
gu lo
ba ro
ak e
ul aj
or di
al le
D or
Ġ1 762
rakt eri
konti ÄĿo
Ġ2 638
aniz aÄµoj
ve ntoj
er onoj
re kta
me tro
B ab
zi aj
C ol
B os
w it
iÄ ¥
ti la
ti p
er st
C x
z b
Ð ŀ
ci klo
L erne
an ismo
eb re
c lin
19 53
v iÄī
ig e
do s
in er
F I
Ì Ĥ
Lo ÄĿantoj
S lova
do sier
lav ia
do kci
u za
A men
b ud
ak to
er do
m me
ri en
te li
19 15
io r
ra h
Ã £
.. .Â»
Ã© r
str oj
z ino
h ov
ru o
re de
ÅŃ u
K at
L or
j f
. !
¡ t
ÄīiÄī eronoj
Ġ2 550
ktu ale
Äµ ojn
ter an
19 61
ond is
lu aj
G il
ta ri
Ġ2 022
ap arte
mo der
af t
19 72
ri ed
mi li
D istrikto
re tejo
k il
v ie
Ġ2 538
ku rac
f rem
par i
u ea
e ÅĿ
sk aj
b ut
va ÄĿ
on tr
ma ra
Äī in
M D
] :
R G
- (
N igra
Bi bliote
zi dento
dak cio
u ÄĿa
de ble
az aj
sp lo
um p
de Å
it r
Ļ -
Å £
Ŀ ?
T Ã
so cial
Ġ1 732
Ġ2 450
qu es
fi lo
ran g
b om
it in
G lo
h ia
oj oj
E x
FD L
G FD
jar iÄĿon
-------- --------
ol did
ederac ia
Ðµ ÑĢ
yle ft
eg ula
ere co
ond s
B et
j ta
âĢ ĺ
H A
) {
si mile
Ġ2 650
L ando
s ank
z aro
B ol
po v
O me
in ia
T an
A V
esper antistoj
ni vel
Ġ1 322
er gio
Al ber
av as
man aj
v sk
si mi
or go
pe z
de lo
e it
[ ]
vi laÄĿo
p ubli
ak cep
P liaj
µ ojn
oc h
ek sa
pl en
ku la
vi li
18 99
el h
am n
ar v
en m
j er
d F
ŀ å
Sen dube
ok cident
Ġ1 670
Ġ1 742
de legi
enk re
rat io
for moj
d pre
u ze
a ba
ru e
per ie
pe to
li ro
er ra
U K
u y
An hal
ra kti
par to
a ze
ol s
z el
me li
y i
m v
S D
iadi la
Ġ2 585
Ġ1 602
An kora
Ġ! !!
W iki
kon ata
ar ian
pu la
ab i
iaj n
19 71
19 54
ut an
ve la
e va
ci et
an ad
er or
P f
U t
Ä ģ
ÅŃ tra
ia loj
ri go
en ant
ÅŃ ra
E ri
N aj
nt h
M U
R T
fin aÄµon
kora Ã»
min uta
ta raj
P art
E uro
a str
r ono
M ak
18 90
ÅŃ k
mo d
ko la
h oj
n w
El loke
Ġ2 290
te mon
p ir
kon toj
ent i
ek si
P ru
ed io
O st
B ro
y er
o F
å ľ
M M
J Ã
De post
kon tro
A rg
19 63
19 43
id ro
g et
at t
li Ã
Ġ2 390
pi tal
ol uo
F ab
c et
nd u
t no
p ia
u in
å ħ
Tra dicie
v ajn
sp ero
K anto
M ed
o di
r no
L en
T R
ar ÅĿ
mi gi
ka pi
M ov
in ent
ut er
18 95
ci do
ia ma
as an
s Å
M G
A A
di dato
is lando
n ord
in ac
ÄĿ en
K ra
mo mente
 a
em ajn
it ano
nd re
ti z
o on
Ø §
O T
N C
Am erika
mal nova
st ilo
te moj
gra moj
er ba
18 96
el in
, ..
f is
S U
de vena
enk resk
Ġ1 480
Kon cer
m Ã¡
or mon
f ere
di ver
ara do
s ku
ig as
at um
lo w
p yleft
co pyleft
ç§ Ł
ri lataj
lav iadi
D onu
ãĢ Ģ
fal z
lic ks
Su pra
M ult
re kti
v oje
le ter
an kt
r ki
or me
W A
send oj
e ÅŃropa
F lic
me dio
ume nto
Ġ" ...
k sp
18 97
ÄĿ in
f li
w y
stad t
ÃŃ n
il hel
F onto
T rov
de ven
ura j
ep h
mp la
ro lu
p ig
kon st
el io
r ko
aj h
F licks
ld Flicks
Wor ldFlicks
lav iadila
E laviadila
Par donu
Ġ1 640
ÄĪ efe
an Äīo
mi taj
ant ino
ki gi
A rm
at ra
ni on
el lo
A re
O c
ler nolibro
und e
ran dan
mon da
Äī ina
r ing
est oj
ab el
lin e
de man
ri po
l da
h ur
ie g
ro pe
D in
on er
de legito
kon ferenco
.. .),
d ona
ho o
du str
i zi
k lan
al og
id is
c at
te t
or en
ar en
T T
Ã ¦
Z u
ÑĢ Ð
po liti
da tita
as pek
A pen
don i
B ern
an gu
v enc
f ono
ter e
e ur
or es
l ma
an ar
ä ½
kan didato
U kra
ie nto
v ost
ot t
ÄĿ ent
an ku
per m
do vi
ut re
o ki
18 98
I de
me ti
) ),
li u
" "
° .
iz kija
A vivo
f dl
st iÄĿo
u ku
om is
Äī an
å Ń
Ñ ĩ
Ġ1 402
Mal nova
.... ....
ind as
kul tu
ÄĿ int
bo F
Ku boF
ir k
ul l
k um
ri oj
ia b
Ä Ľ
tra duki
s ilio
D av
ro ÅĿ
pl ano
el f
j to
B N
Hun gara
par ta
B uda
v ina
Â» ,
Äµ a
ov en
19 02
l de
as ka
? ),
R am
âĢ ¢
t d
C X
GFD LG
GFDLG NU
html GFDLGNU
Bra zilo
Ġ1 702
atr ino
.... ..
ble mo
ern aj
l ismo
li taj
En ha
al ku
b os
mo g
re mo
re is
j no
c ro
e er
âĢ ĭ
I z
Ġ1 779
iu tage
tion al
la ude
kra ta
g ua
" ...
D aÅŃ
o vi
k ed
il t
de mi
an na
c as
P C
V E
per iodo
to vio
re vol
b ord
af ero
por to
b us
M ond
e id
ve b
di ko
ra ra
H E
. *
Ġ1 392
ad minist
ultu ro
Di fer
af ojn
is ion
ir oj
? ".
v os
le b
S ar
ta f
D ra
ro z
S y
' :
G A
Kom itato
n eniu
Ð° Ð½
me lie
p ojn
ap or
ge b
ks io
ent an
st ed
H il
ek te
h at
al ti
' ).
Ð ¶
Ŀ ´
Li tovio
ord press
Mi lito
Ð°Ñ ı
Ã§ o
ri lat
ult ur
f ari
ast el
ul tis
em br
de ÅĿ
ze ta
a gra
zi ci
li co
ci po
nd al
la i
io p
aj l
is on
µ i
ÑĤ Ñ
iuj are
st ere
tis mo
18 65
18 94
aj na
li lo
la h
an ia
r ra
å į
§ u
M K
ÄĪ iukaze
Ġ1 460
su kc
ri nte
ru ma
z ol
er em
É Ľ
I G
k b
min istr
Ġ1 430
Ð½ Ð°
klu boj
ser voj
se nto
of te
d ajn
U rb
vi to
va ro
a il
18 93
st os
la mi
mo di
ro mo
me g
a al
S is
: "
K I
vin ilkosmo
âĹĭâĹĭâĹĭâĹĭâĹĭâĹĭâĹĭâĹĭ âĹĭâĹĭâĹĭâĹĭ
Kon sid
in ara
5 000
P ac
19 42
re pr
k ut
m ist
ik to
to mo
ta v
¶ l
F Ã
Y a
Ï Ĥ
Ġ1 752
ub lika
g iloj
K Ã¶
Ver kis
Ã» e
log ie
str ia
un kt
s ic
p ng
en ne
om ar
on ar
N P
ek stera
Ġ1 692
Ori ento
ondi nto
pro k
en ojn
ch Ã
os o
re do
na do
ar mo
K er
W h
O H
k g
Pre zento
Å¸ 
Äī ambr
mal granda
A ktu
es pon
Ġ* **
ra dia
an ino
en sa
eg is
an ov
an si
ran oj
k em
19 01
r er
E O
¼ ļ
Kont raste
Ġ1 380
st acio
Pli mul
A ten
j uda
ka zo
an ge
18 78
aj ro
Ã ģ
i y
T M
L T
sis temon
Ġ2 622
N ag
ÄĪ iam
ro ce
on co
ek va
la mo
De utsch
Ġ( *)
ro teo
Do roteo
sta do
re sa
s ce
an sp
ar da
K ad
mi ka
F el
re nt
E ko
li i
âĢ Ŀ?
mal sano
le gilo
mo logio
in daj
L ev
up s
me za
pl an
si lo
e ig
D em
in h
en l
l ra
F O
G h
Bal daÃ»
Uni versa
fel d
hal to
isti ke
ling vo
k ial
vi da
vi nt
mi ko
en om
do z
: âĢ
âĹĭâĹĭâĹĭâĹĭâĹĭâĹĭâĹĭâĹĭ âĹĭâĹĭâĹĭâĹĭâĹĭâĹĭâĹĭâĹĭ
Ġ# ##
R esp
tra duk
z onoj
kst o
up on
le vi
ma c
). ..
ri f
G or
en en
O u
S R
º ç
h d
Uni versala
âĢ ¦.
Mal supra
re volu
¼ Ð°
min is
for mi
ÅĿ ton
t anoj
nt anoj
az ar
e est
bo lo
mp i
u ve
il g
ti un
te in
C N
Î ½
z p
Ġ1 470
k anta
az o
av an
re du
ar mi
w at
p es
as u
a an
ra rano
laÅŃ vor
as ejo
u gu
t enc
B ap
ba ze
in ita
p tu
al ent
z il
ci m
A mo
S es
U D
< /
ya hoo
gv idantoj
mokrat io
kon sci
kon ser
ti ons
gu la
tan te
V esper
nt ojn
pl or
z ir
18 37
ci ig
ma ÄĿ
b ek
) !
D R
ek siko
Ġ1 440
aÄµ ojn
don ejo
v ante
s hi
go og
k us
18 48
! ".
ve ta
on ek
ta li
h as
ro o
âĢ ł
N an
M V
Ñ Ī
C I
Î ¹
Ê Ģ
ì ķ
fun ction
- ï¿½
es oro
m ba
ud oj
18 88
L et
à ¸
pa ÄĿoj
mis i
lig ia
P ari
f orn
f anoj
ac q
ku p
er nu
er co
D ol
I un
mo de
om as
n na
ar di
£ o
A U
j ulio
De mokrat
ci vit
ko lekt
ma th
ap ana
f ana
int era
N est
i fe
per i
G ol
ar ne
ka la
W ar
ģ n
do viko
ðŁĺ¨ðŁĺ¨ ðŁĺ¨
ðŁĺ¨ðŁĺ¨ ðŁĺ¨ðŁĺ¨
lova kio
Ġ1 432
Ant onio
ap arti
Äµ on
o pa
mi r
es k
ko b
ro Ã
stat istike
Ġ1 292
Ġ2 522
C elo
j ust
sek v
ist ana
re ton
la cio
bo ok
in im
f ter
p pe
el v
me c
al es
S or
G as
W ill
sk aja
K ult
U son
s ge
Ġ1 005
la vo
h ok
vi di
vi la
f fi
pa co
c ed
R et
b um
h ie
de v
ÅŃ re
at on
es is
f as
b n
Lu doviko
En havo
Fest ivalo
re vuo
Ġ1 302
re dak
s poz
liti kaj
h ann
or gio
k 
ism on
nter ne
or taj
pu ti
fa ci
ino ro
av ar
and ro
zi ti
lan to
ent re
er ve
se co
al c
in ko
S ia
S to
on b
an y
a q
Ġ1 609
Li llo
far ita
te amo
S kri
e uro
zi on
ce a
tu j
kt ra
an sk
a fi
B lu
ig on
ul an
c iÄ
l ri
ri u
w an
/ [
C S
/ -
Ã ª
S M
Spe ciala
ko logio
G rav
sen do
anc oj
ist is
lo pe
de t
oj u
b f
å Ī
Ġ1 642
Histo rie
re vu
am ili
b one
ia Ã»
az a
ono ra
ar eo
ot an
re si
po li
s un
ri te
K is
Ë Ĳ
N D
, (
h h
N S
Nec esas
Bi blioteko
Pr ojekto
mokra ta
Ñģ ÑĤ
Ġ1 022
pro cent
g ht
tri bu
f ina
bu lo
h eb
a gi
le in
Î µ
int eralie
ar anÄĿo
lo metra
aniz aÄµo
ef urbo
li za
ÄĪ ina
eran ti
le ano
o ks
F ondi
rt u
ran to
kon to
ed z
st ul
Ł ti
li ar
M H
s q
¼ l
. /
A F
âĪŀâĪŀ âĪŀ
laÅŃ vorte
li gita
stru aÄµo
ve nto
h istor
aÅŃ gu
ra ch
ter s
L ond
p ut
S il
es an
al li
æ Ĺ
y g
à ¦
sk ultis
Kom pare
sem inario
mi lito
me inde
¼ ck
N orde
sk uloj
re pre
s ing
j toj
S ov
18 77
f ed
li di
re le
al ta
s j
k Å
] /
pre ÄĿejo
ut ube
te orio
om bro
to log
z ante
li tik
ez io
ur ing
, ...
ÄĿ ino
lan e
ur ga
tu lo
17 77
18 89
p se
et n
st ant
s le
³ å
ka tolika
en riko
erman aj
li ca
iÄĿ u
lt en
pa ti
ran de
S ul
u ad
iu ta
18 91
18 18
Or leano
lament anoj
s 
ek spozicio
ka rakt
Ġ2 030
ubli ko
Es cep
ant ling
ar Ä¥
ek ton
si nte
ÄĿ ado
v ojn
K ir
u si
E ve
ik u
ci t
nt s
N er
Ļ !
ra pide
Tra duko
A zio
Pri ntem
di cia
uz ik
i za
iv ero
ej on
im u
G eo
ga ÅŃ
R ed
an ne
ro le
ia ti
ia g
n ro
Ã «
âĪŀâĪŀ âĪŀâĪŀ
man iero
sch e
cep to
ti ÄĿoj
A nto
st ono
st ud
La su
3 000
ir do
19 51
s se
ko h
G ri
li er
in p
æ Ŀ
į å
K K
E B
A rab
ÄĿ ener
tiv oj
f alo
ta kto
ru ita
er ce
pi ri
N ot
st ran
er pe
do p
k es
aj e
r ro
R S
i w
tiko loj
kam pan
ent ron
B av
b ov
ku ra
ek ci
ni e
M el
T al
as on
D ar
on in
ģ ®
¼ h
" >
O z
eÅŃ ropaj
Al terna
/ [âĢ¦]
un umoj
Kom unumoj
for maj
N iko
s ac
le ga
A ga
18 66
si an
17 95
r ant
me a
18 15
¡ k
Ð Ł
& &
kade mio
Sal uton
na tur
E vol
ba ble
ej a
g eo
ot h
ov et
di fi
pe co
at ri
ri er
¿ a
¤ n
å º
Ra pide
De mokra
Ġ1 539
de ÅĿo
Ġ1 280
du kado
ele mento
Fran Ã§
en 
g ale
v end
M ani
g anoj
ap t
bl oj
18 76
am pa
st ur
er la
} )
O V
S F
Jo hann
A ktuale
h istoria
am erik
Kon gres
Ð¾ Ð½
Ar tiko
den on
Ã© e
for mo
vi za
ing t
N iaj
p ono
k ce
ak so
mi ks
ed an
da pe
o da
nt il
er de
A ma
¤ ¾
/ ?
Reg ularo
resk uloj
Ġ1 340
Äµ urn
an tojn
P atr
fic ial
) âĢ¦
ba zo
en est
18 79
ci vi
18 55
to ma
as oj
^ {
v n
yo utube
Par topren
Äľ enerala
A leks
Ġ1 649
pa bla
G ener
ve ntu
stru ita
ir doj
v iki
ri ver
ti loj
e fi
go v
K os
ci g
al mo
Ľ ½
â Ĩ
K ultur
Infor mkesto
ãģ ®
k lam
k elk
gv is
tik an
si nt
S id
ne st
di u
Ï ģ
½ .
Å Ľ
ī å
Ġ1 759
mis iono
Ã¼ h
m iÄĿ
o og
ig oj
po c
it s
ka ta
18 10
Ŀ ¡
Ŀ n
b k
M y
ver ÅĿajne
in fan
av eno
g eno
f era
ba Ã
v ano
en su
.. .âĢ
18 57
li da
18 92
ur y
an ci
18 25
ia c
ro i
an h
, -
© m
F ederacia
bere co
po litiko
kcide nto
arti gi
zita j
pro pon
sek und
ÄĿ ard
a fo
id aj
il ia
c ant
r mi
la ci
in at
me m
re ma
am an
v ra
on z
S N
D P
M Z
re dakcio
Kon ferenco
Ġ1 529
ev aloj
ek stra
da kti
tiv ul
mal fer
S tan
an kaj
d anto
le toj
u il
l ul
n ul
E mi
am on
J on
A J
M J
å °
E a
no mbro
Ġ2 322
Ŀ Â¯
âĢ ĿÂ¯
du kis
s amoj
lan daj
un uo
or ea
T ab
es pl
ost o
W ol
or po
aj an
¶ s
W W
± ¼
â ±¼
âĢ ¦)
Ġ1 542
RE E
Ġ2 422
B rita
F aru
g igo
ad reso
las i
ÅĿ anc
g ante
est as
ba to
ur be
o bo
a bo
L ok
18 86
id on
ve st
ia ÄĿ
i it
at s
er me
en es
no s
e q
S L
est rarano
âĢ Ļ-
en berg
ani zoj
er ze
g ono
in ga
re toj
ed t
mi d
om on
D U
Ek zist
pat rino
da ÅŃe
le kta
erm es
do ks
18 70
La ut
mo ra
18 14
12 12
æ ĸ
B S
si mila
Ġ1 621
Aso cion
le ÄĿe
Ġ( âĢ¦
re lig
stru ment
is ou
end aj
om pu
ci rk
S and
man to
18 44
el pa
ti pa
18 08
kon k
18 50
18 06
18 26
ni ta
aj d
¯ :
L K
ne ÅŃtra
Jac ques
AÅŃ strio
p ied
Ġ1 701
Ġ1 360
F RE
ubli ki
LaÅŃ dire
cer ne
on taro
ser va
Ko ord
ri za
do zo
Ŀ anta
eg en
p toj
f ond
in ve
J ul
V et
nt ik
18 05
l me
re ka
ko ti
K as
in in
y Å
M Y
g k
Pli multo
ro ÃŁ
Ġ1 689
uni versi
isko po
no mita
ent ejo
ad res
ez u
ki taj
men si
ce z
ga ta
17 56
R um
ek ni
s st
l w
¨ å
mal samoj
Ge orgio
fe stiv
L onge
ri lata
ig itaj
P fal
pro pra
ta Äµoj
stru o
T ero
C hi
il ojn
at ch
enc on
e ba
b ono
ri gi
an us
18 59
H um
ÅŃ m
nt al
li te
¯ ï
O K
( #
C y
Bal daÅŃe
fi lozo
lo rado
M ama
st aci
n Ã©
un ue
as ado
raf ia
mo gra
lan ti
B ot
v us
fi do
ul m
Ķ âĢĿ
I ma
t st
G an
B C
U I
M Q
Ĩ u
pro gramoj
f loro
ka tegor
konti ÄĿoj
tr anÄī
Ð° ÑĢ
. ãĢ
ent ile
Ġ( !)
G vid
ci ojn
il ino
n jo
ie c
ni ci
s ma
ma in
al n
W er
® oj
on l
" âĢ
Ń an
b m
Ń å
ï¿ ½.
re klam
Ġ1 662
S iste
si eroj
ntem po
cent o
Äī elo
g ajn
ti nte
op h
am ara
B ara
o ze
r ba
ro men
ac oj
la toj
ku pa
si ma
r ond
18 45
d ur
pe ta
el is
18 23
in ka
¨ re
or ia
Î »
· ŀ
IS BN
de zer
se pte
en erale
erne jo
ann y
t une
tiv uloj
ari zo
era ÄĿ
ra zo
ze jo
ri ba
P os
ci le
ci ta
ÅŃ f
' ),
is io
is en
º º
Î ¸
J P
> <
pl iaÄĿ
P falz
si mbo
Ġ1 682
w ell
ten du
or don
ko mb
b ojn
Äī isto
Ŀ ita
on im
da f
pe lo
at in
y ar
j in
è ¿
G O
V l
Plenk reskuloj
go ogle
s lova
Ġ1 709
Ġ1 611
ic hel
ultu ra
u kaze
ograf ia
tu raj
H istor
od ern
za ta
se j
ur ka
ek l
A do
mo c
lo c
v re
18 16
ïĿ ´
¡ ïĿ´
ïĿ ¡ïĿ´
te atro
Ã© ran
am ato
nt era
ÅĿ oj
iv u
lu ge
gra j
er toj
18 33
s ve
A la
T aj
C D
? '
F REE
on daÄµo
Y ou
un ven
li foj
ata lo
li zo
g ub
en ke
ol um
ng la
po ka
f ul
17 97
mi i
Äī el
mo o
G es
as m
B O
mater ialoj
å· ŀ
kon cer
gran daj
ard en
ori oj
la tin
al don
al pro
anta ÄĿ
oc k
kt anto
en anto
ej t
mp l
ic ia
17 96
C el
u w
ba stono
esper antisto
Reg iono
E konom
sci enca
ed uka
Ã§ e
lam ojn
itu ci
dent oj
Ã¡ l
res ka
L uk
iÄĿ anta
ta rio
re ÅĿ
zi la
on jo
T ok
18 83
le go
18 56
lu d
ol in
B ran
er ki
ed u
ne y
ar le
or lo
ro Äī
or Äī
al Ã
a on
K P
¬ Ĥ
U m
åĽ ½
Dis vast
Mu ziko
ob jek
pro ces
enk res
c 
don ita
Äī ine
ern an
P erm
r ojn
ud aj
go g
na ÄĿ
in es
n iÄ
ia te
J er
d Ä
f g
B L
Ã ±
é ĩ
klam ojn
Pra deÅĿo
orig inala
na tura
ES T
Ã¶ r
!! !!
T emp
t ial
il moj
en ion
as int
ov em
al us
re jn
ol oj
ad re
ri mi
A q
ī t
+ +
Po pola
tu gal
H ans
ev alo
fer mi
pr eni
o od
ga la
P ent
23 45
b ig
ci la
le ÅŃ
nt ar
O kcidento
ÅŁ ti
Te atro
fer mita
arte far
q ui
mon s
b ino
st ab
be st
ci fi
17 87
ul f
ad d
ur l
K it
18 24
tr ansi
. ãĢĢ
ka pital
Fer vojo
H istoria
Ġ2 543
no mbr
AÅŃ toro
unk cio
ant ista
al kul
ÄĿ ulo
bl ank
b ano
ar ja
man ÄĿ
pa per
di vi
li po
ur v
s iÄ
d li
F aj
H r
T y
" ]
Ķ ,
Kon silio
S igni
Ġ1 749
Al menaÅŃ
am ento
la mento
ie stro
E van
eri me
tis te
ze po
La bo
men do
n lan
o us
16 44
k se
lo po
um en
M ur
oj os
M it
do w
17 23
c li
m h
j v
flu ge
l ajn
A be
in gi
ra bl
tu da
si do
18 04
s um
ri ma
or st
T ar
Ð ĳ
ì Ĺ
Vin dozo
Su poze
Ġ1 761
re ktoro
Ġ1 030
Ġ2 092
Mem oru
onon co
ci ence
Dum flu
te kto
z ojn
per s
ond oj
A ran
r ur
N ie
u it
K na
m na
ra me
an as
in v
d Å
C R
c Ã
G y
è¯ Ń
ti gita
taÅŃ e
k tiv
Re pre
tik oj
ma taj
tr ino
s us
ra vi
f em
ne c
ur m
nd er
to i
is er
a oj
Ð ľ
Ð Ĳ
C s
in stitu
pan jo
t 
P hi
rt h
iÄī e
se ÅŃ
I ng
me to
er ri
te i
aj r
R in
in z
in b
¥ an
R U
K S
Dum fluge
si milaj
N askiÄĿint
pte mbro
per sono
cer to
F ann
!! !
la ton
g ha
R oc
l ono
en ita
tu jo
ks aj
li Äīe
18 47
33 33
18 80
v ist
17 90
d un
er lo
h re
00 14
ia k
¶ t
mallon gigo
Ġ2 643
Ġ2 602
Ð¾ ÑĢ
pri mo
onom ia
an ali
sp eri
ver se
m ina
ing u
ta lin
S iaj
i ano
ek vi
18 85
s so
18 03
17 98
at io
v ro
D S
E o
å ĩ
geme inde
Äī eval
ÅĿ tono
zer to
Ðº Ð¸
³ Ð°
p raj
tal un
c ino
18 68
in ic
N ic
18 49
O per
18 36
00 07
G ad
n ant
f at
r ni
me ta
al te
t li
10 10
L V
G L
Ġ2 632
M orto
son aj
lon ga
ra kto
eri z
h ere
est r
d isto
ak ul
et an
ko me
s Ä
I B
] "
¤ r
F anny
P atrino
sis temoj
zist is
pa roli
Kont raÃ»
b lua
in atoj
Ġ1 711
R ich
j ekti
Ðµ Ð½
no kte
kta to
k 
z Ã¡
kc ia
L ang
M ona
ti nta
at ron
ta taj
r ut
ist s
li ve
de le
re en
17 13
ri is
tr ansp
Su pozeble
Ġ1 429
Ġ2 532
Ġ1 092
m preneble
ko mpreneble
Ð¸ Ð½
dire kti
pa stro
lu bon
sd or
Pro vin
A rb
ani ko
f anta
zi an
en ec
kon diÄī
G ot
lo si
18 84
la vi
sp l
ran sp
al ki
iu l
17 94
g at
lo u
to re
st al
É Ķ
Bap tiste
De taloj
po polo
Ġ2 432
Ġ2 592
sp ekti
Ð½ Ð¾
pren is
ster aj
kci dent
er alo
l Ã¡
res s
ont ro
ing io
ian oj
... "
b ec
di ter
R ot
ir is
kt ur
ic an
ÅŃ no
12 14
O li
§ i
perie stro
ŀ å¸
Ġ1 521
ojek toj
sd orf
M Ã¼
org es
or 
tiv ig
in ale
ÅŃ gu
Ka ste
ig ado
gl is
ba ta
g vi
lu de
al ist
u co
re se
de la
ci in
ÅŃ an
18 13
18 12
ä ¼
ordin atoj
Int eralie
Ch risto
ver boj
Ch arl
te ntu
du kti
en ante
zo fio
st anta
t anta
g anto
18 71
18 35
in ut
ul k
S un
it ra
W el
di r
S oj
H C
I e
å ¾
kva zaÅŃ
do kcidente
ÑĢ Ðµ
ur boj
ntu ale
kon tri
ven ce
b alo
re fer
ra ine
mb re
d anta
en cio
al isto
st im
eg no
re ga
) ",
ku k
P om
ko di
te z
N K
p k
h x
aÃ ®o
Ġ1 439
sek reta
Ġ1 629
ŀ å¸Ĥ
en iero
G Ã¶
du koj
ag y
u aro
z anto
S int
de bl
18 67
w ic
C lu
o em
el mo
es ko
12 25
E ta
º Ñ
> .
re ligia
E lekt
arl es
mi tato
L uc
el ena
mo grafio
di taj
Ek est
and on
g ej
18 27
va to
17 08
um aj
f ie
17 99
t mo
me j
11 00
K en
K D
x r
Ġ1 589
s ankta
ro mia
j unu
lo koj
Re fer
pr eno
Ã¡ h
al oro
D ame
ar gu
h ak
18 61
nu s
16 03
ol as
M ig
16 94
17 05
z ma
12 13
A ri
17 16
j aj
en ro
er ro
A er
Ã Ķ
Ì £
( (
raran oj
Ġ1 601
me dic
ja raÄĿ
aj stro
to bro
ok tobro
par u
fe li
h aÅŃ
e pi
a gr
fi ci
lu do
ol k
il er
ad is
s ie
di m
c lo
z al
Z or
B is
R D
U M
G P
gro ups
Esp erante
pro fu
li gio
di vid
v ulo
ks onom
d 
Mal pli
re kv
S anta
h az
ara s
u ja
I mp
la ku
18 39
16 96
da ti
S ant
de an
el n
V la
O a
O P
Å ł
Tut monda
re prezent
Ġ1 741
Ġ1 721
lif orn
do lf
Ä¥ i
un ulo
Est ante
lo mb
en aÅŃ
be la
p ter
18 73
ot in
la per
g ed
b un
un f
13 94
el y
10 24
F en
d c
d E
W F
P T
m onato
V espere
Ka tolika
la mao
reda ktoro
Am erik
M enci
par t
an tik
A rk
ita jn
jo f
man u
ok oj
S ir
re kt
us h
ru na
18 46
16 87
14 04
ad ri
ur ÄĿ
me te
al ka
O h
¥ n
Äī ampion
bi blioteko
kon sent
Ġ1 729
af rika
re gis
anÄĿ ojn
c ens
ra raj
z ano
18 81
or us
ka po
10 95
c am
A ro
m Ä
Ï Ģ
De mografio
Tur ingio
Ge orge
ïĿ¯ :
ïĿ¡ïĿ´ 
fac ebo
r chen
rac isto
ce ae
dek stra
mon ume
ati ve
p Ã©
lan taj
D ip
es ch
u str
ta cio
ara le
be jo
ve jo
ga z
u ga
pa ÄĿ
15 45
S ve
en ki
et ur
f it
A ni
na li
10 99
es h
b es
on iÄ
ti aj
ko k
º Ĩ
ĥ u
est raran
indu strio
Ð¸ Ð¹
ba talo
su pren
g uloj
ba Ã»
Al ven
t Ã©
H erman
ial is
ka ste
R od
isto p
a sta
18 72
ar ent
el po
17 93
16 05
el pe
o ÅŃ
mo b
t Äī
D D
A Y
R N
â ī
ka ike
sk ribo
rig in
man ier
am iko
U rs
pu ra
y ch
ÄĿ ej
kt ro
en ov
La go
ve da
V ul
ÅŃ o
st l
f k
I b
est raranoj
Ã© ranto
ïĿ¯ ïĿ
ïĿ¯ïĿ «
³ ïĿ¯ïĿ«
ïĿ ³ïĿ¯ïĿ«
Ġ1 731
Ali dire
komp aru
sp orto
german ling
im ark
re ati
las s
E Na
ven aj
Pl ena
E if
st anc
o Äīo
ku ÅĿ
B ac
D ec
M us
si oj
go ta
17 07
em ul
m ant
mi it
14 05
15 05
h ek
ÅŃ aj
t na
al la
G aj
ro w
¨ s
Ñ ľ
H O
w r
× Ļ
sh oven
Jos eph
mon umento
Sv edio
Ko ordin
konse nto
dire ktita
pro viz
Ġ2 630
man kas
du kita
Oni dire
it tia
v ikipe
tra kta
ek str
and s
gra ma
C ir
18 82
18 64
a ut
13 04
ran a
to kon
13 97
iu lo
am es
or re
14 13
10 16
in am
st am
ta te
E in
Ð Ŀ
V j
I g
Rol shoven
erze jo
Unu afoje
vast iÄĿo
pro pag
uni versitato
logi aj
vi deo
Mem orin
ep isko
ÄĿ 
c etere
sp ekt
po emo
k ore
ap art
m ajn
om ero
po ca
ian a
vi zo
g ojn
J aro
po lu
f ut
18 30
ol t
ul d
mi an
di e
mo ro
on es
ta ko
¨ n
Ģ ì
H U
U L
O C
Ä´ erzejo
El stara
pro dukt
Ġ1 679
ofi ciale
Ġ1 739
ap rilo
Ġ2 392
di plo
to logio
rem d
ili oj
en aÃ
ti vado
le moj
li ch
ci lin
li ano
ne vo
im al
pi da
ka toj
ci us
12 57
16 48
sp ond
de go
18 40
ol en
17 50
Ļ âĢĿ
es aj
H es
re Äī
10 14
18 17
ar f
T H
é ķ
Å Ħ
J K
c d
= =
Plej parto
av iadi
min istro
ku 
jek toj
de bla
Ã¶ n
jo fte
stru ma
dent aj
lo raj
am par
tra k
a ste
mu na
in ado
eg ion
on isto
al ino
as sa
on eg
17 57
18 28
go ro
15 34
18 34
15 87
et ia
14 93
10 98
on ÄĿ
00 13
aj s
N in
er y
ä ¹
ľ ;
mo delo
ÑĤ ÑĮ
ja pana
Kom una
end aroj
tat anoj
ka Äµoj
mi koj
h Ã©
k Ã¡
art h
or iz
va Äµo
g ina
ta ron
ent ino
C ap
fi zi
ci ec
la ter
er og
og li
18 75
18 42
18 07
in ig
ig aj
ki nt
ul s
12 26
re te
10 15
g st
U A
¸ Ģ
bu Äīisto
âĢ Ļ!
mal bona
u 
Ġ1 291
To tala
ku raÄĿ
s lav
jar uloj
der na
Ã» lin
rat ia
pr isk
ton a
R ib
ar men
gi te
sk e
12 27
l va
is da
w il
r ne
h os
mi e
ÅŃ do
io me
10 17
20 20
K L
L L
H y
É ª
Ð Ĥ
p c
å·ŀ å¸Ĥ
Î¿ Ï
Po litika
ga zet
fre und
cienc a
am enta
Pr enu
ab riko
ek zistas
Ã§ a
W Ã¼
em broj
ÅĿ tat
ku tim
z Ã©
ent ila
res ku
for me
ba za
ÅŃ zo
e br
ri ga
tu de
K ov
15 27
17 36
o go
di go
ol do
10 97
10 94
S ie
u pe
ÅŃ ka
15 26
le p
17 12
00 12
N ar
x is
P P
Ĺ å
z g
Am baÃ»
Ka liforn
kon tribu
fre unde
in diÄĿ
la tina
fi ciala
kon sil
Ġ2 492
su fik
i dent
ten anto
ari ti
al ojn
ra tis
kt isto
h ab
ci ze
du lo
D im
18 69
18 62
si aj
16 57
16 27
17 27
. ".
15 08
10 96
or um
14 94
pe a
e es
re y
17 14
E ra
R C
z d
ur freunde
Nat urfreunde
komi tatanoj
Na poca
ìķ ŀ
De mokratio
de mokrat
ĤÑ ľ
Ð ĤÑľ
Ð² ÐĤÑľ
Re prezent
kun veno
konkur so
Ġ1 421
komen ce
I LE
pit ano
em ajne
pa rato
S pec
ra lio
ter min
ma tika
or isto
V iaj
i pi
ek tu
10 55
17 03
ka va
da g
h et
or y
ro ta
E is
/ >
å ¼
O v
uk raine
Ko ordinatoj
Mal antaÅŃ
ci fika
Mal longe
mit h
p siko
ek stre
mi zoj
isi ono
cep tu
C ros
no logio
De pen
ci fer
ver daj
if el
ble moj
du kto
P ort
mal of
er ca
nter re
B est
and er
and v
im na
16 66
13 27
as pa
es ig
ran do
00 06
em ia
ri do
16 23
10 23
Äī en
10 12
ia o
/ "
´ Ñ
j z
g z
G B
° ,
po litik
Kon greson
S mit
Ġ1 549
) âĢĿ.
Ġ2 402
Kom isi
ev olu
minist ro
ch Ã¶
pa ÄĿan
ali ling
lin gen
gra Ã»
mb in
or mu
ce le
ok te
! ",
17 37
ut in
16 50
15 06
et te
f ad
ek e
g om
ni te
r na
j mo
le on
12 23
16 24
C T
m g
z j
æ ¸
com mons
Ger main
âĢ ĶâĢĿ
**************** ********
er konse
spo t
blog spot
P ubli
ali 
N IS
ta gon
te kta
kun e
eg ista
di fer
anta jn
li kaj
ke co
ÅĿ ino
t ter
us oj
ur us
13 37
15 55
C ut
ki z
14 06
20 97
ne ta
un an
13 26
T el
ti le
z es
17 24
12 24
15 25
Äī on
ri j
00 16
17 17
/ ).
A ta
Ŀ âĢ
å Į
Ð ĺ
y b
Mal graÃ»
Ti ukaze
Ge orgo
ne vole
ÄĪ ampion
Ã» lino
S tru
ÅĿ ipo
ins uloj
in cipe
vu oj
gi taro
mar k
Re ÄĿa
kul oj
c 
re flu
ru kto
f end
gu me
ho u
ri zo
p ha
el ojn
ba do
men o
s lan
is man
14 57
15 36
16 08
em u
o ul
a ur
17 26
10 26
10 13
li nt
15 17
I J
m c
S mith
ÄĿ enerala
ku mento
irka Ã»
di fin
me dia
la raj
T end
don is
ea u
E dz
ma gu
aro l
lin a
to fo
ti ga
15 57
17 88
va ka
os p
D os
it er
16 26
do b
S el
le le
ti b
15 13
16 14
G io
R aj
N F
m z
æ ±
c g
su kune
º ç§
nor mala
Ãĩ apitro
Ġ2 302
Ð¾ Ñģ
am ika
ser vo
pe coj
n Ã¡
mor ti
ona te
ern ant
a ha
st ojn
ch u
S ib
pe ÅĿ
ir c
ku z
15 37
per t
ta lu
ol y
ran ta
16 95
24 05
ek i
ci as
el ar
di aj
nd oj
ka st
15 16
x in
¢ n
D N
L y
aÅŃ gusto
Po litiko
Ġ1 661
Å¸ 
ve jk
Ġ1 389
Fi liber
V oja
Ãĩ irka
cip oj
rav as
M anÄĿ
ks onomio
Ta ksonomio
ÅŃ ten
il doj
ob la
ec aj
h ic
B ut
13 50
d ne
15 23
13 25
Äī as
ti r
w is
T S
+ ,
¥ å
G R
¬ )
Ami karo
ver kisto
Ġ1 639
Po liti
kolo ra
uri lo
s itu
tat ano
mal var
u dent
ens es
ub ern
k ana
O ld
and oj
u gra
p ano
b ak
ok aj
og e
14 86
13 03
15 04
16 04
17 06
15 96
15 95
14 97
15 98
13 23
17 25
ta re
ta ti
14 14
T in
00 18
âĢ ĵ
x an
R M
S H
E H
± å
v y
Nov jara
spe ciale
ten daro
A IS
V ortoj
enb ach
Esp lor
ma stru
Ä¥ o
fik so
Mal dek
oj uz
li tan
tor ia
al he
h ing
A mu
et ojn
t anto
ed anto
vi zi
im an
F ir
12 37
gr en
10 87
13 45
17 04
to va
an ki
13 96
ad da
t um
ra mi
om me
16 99
13 99
17 19
en w
Ñ ħ
R L
K V
) /
Qu elle
duki lo
Ġ1 641
Ġ1 431
S tran
emi zoj
His pana
Ka ida
mul te
aci oj
va ÄĿa
kti taj
kon tin
g van
on sek
in sek
orn io
po ez
C he
ri loj
zo u
or fe
4 000
ek sk
ent on
17 35
12 56
14 87
e ol
an ig
13 08
g em
K em
14 95
et s
l tr
ik v
c os
13 05
r de
al di
es en
nd es
15 24
ti f
p Ä
Kom isiono
âĢ ľ;
kapa blon
Ġ1 541
p isko
U SA
ur ban
S tar
k arto
len b
ce pt
ba raj
P Ã©
van g
K ron
ri kaj
por ta
o ÅĿ
no bl
os eo
Äµ e
vi va
17 55
14 65
en pa
lu j
it ut
15 03
13 07
14 50
16 90
um or
C it
15 99
14 99
le i
16 25
ľ ),
âĢ ľ),
15 15
® on
å ±
laman to
en dar
Ġ2 292
ant 
esper antlingve
ap rob
ci kla
ra tion
F lor
pon de
b ser
ard eno
nn nn
in are
it anoj
c ado
ag en
u kr
aÅŃ a
nt ita
la ce
lan ko
h ot
da fi
13 87
18 60
16 07
ta ran
23 97
18 22
10 25
14 25
io v
h ra
E W
Gad dafi
æĪ ¿
el dono
reta rio
En kondu
pro dukta
Ġ2 330
f ama
sk ult
vi rin
ro ata
ta ton
est i
ino ra
sa u
ant ono
ri kt
18 63
pa ta
H id
se e
p ran
14 08
ad an
ri de
es on
16 13
C in
S G
O F
ma lamanto
komen cantoj
S ocia
Ġ1 409
kor ekta
stit ut
um eroj
as ika
kl asika
bon ig
t ena
I van
za be
f ron
in ojn
su la
ru nd
15 47
17 46
14 37
10 57
14 27
12 44
ond aj
15 56
12 96
14 96
ul v
15 97
p ad
um in
d mi
le u
d ka
k ko
ar li
ar j
is ra
Ĩ Ĵ
C P
ÃĶ vejk
Pre zidento
ka 
Stu dado
Vi laÄĿ
sk ulto
F lug
ko lekto
Ðµ Ð»
pec ial
v iÄĿo
pen da
G ene
g ori
ble co
al ismo
M ank
S op
est roj
est u
§ jo
on ac
» sk
16 37
15 35
17 86
10 86
K ond
16 56
17 45
M ol
em io
il es
um is
16 93
¨ ne
14 98
12 98
de st
W it
di z
es z
15 14
12 16
00 17
ta z
c ra
st v
Ì Ĩ
g b
Ļ ?
ç ī
J A
W E
liforn io
Si mila
kon tent
uka do
pa blo
ig ht
Ã¡ d
r ina
hi li
to gra
O be
vo ra
da kt
16 33
13 56
ed ant
in et
b ad
10 93
15 93
15 94
12 94
h ik
on ci
S at
14 24
C re
t ko
L C
! '
å ³
ĳ å
Fund amento
Tra dukis
bl ankaj
Th omas
Sur baze
V jet
Ka 
mokrat ia
kon sid
ulto s
kom pren
lingv aj
ros st
h alo
ad rat
al uz
he la
c ojn
g ino
li toj
er us
16 47
10 37
14 33
14 56
15 88
so f
ut ra
ro ve
14 07
va ti
13 06
24 06
12 95
16 97
13 93
16 98
pe st
s at
ar na
el ta
la di
n me
nt iÄ
B lo
13 24
ro ka
D re
V as
x on
kv adrat
es plor
and viÄī
Am eric
Ġ1 751
ad ministra
ÃŃ k
ar koj
f rat
or umo
erman n
Ġ !âĢĿ
sek s
ank as
h op
Äī ap
ra ÅĿ
e ono
ar ku
16 86
16 45
24 07
po va
ÄĿ ig
I ran
er ed
12 97
13 98
am ur
on ie
12 22
14 23
as aj
as z
in l
P y
I c
Ã ¥
å ¹
t Å
Ŀ !
topren is
pl enaj
Ori ente
anu aro
Ã© ny
ts ch
v 
ven e
In flu
no moj
ib er
s cio
er eg
.âĢ ľ
ter i
13 57
10 27
14 35
12 34
16 88
or so
18 02
ol aj
or ant
23 98
ie u
d ni
23 99
ar el
io ma
ka ra
am ar
H I
) (
Mod ernaj
Im perie
âĢ Ļ)
or todo
te mpe
ÄĿ eni
bu mo
z iÄĿ
ing oj
U zo
... ).
n ano
gi oj
er gi
mp re
18 54
20 57
18 38
in sp
12 87
15 07
t ki
23 95
12 93
ni nt
en ni
12 99
e el
Ŀ ..
I st
ĺ ¯
x h
S iajn
Nor male
Äµ 
Ver band
De pende
pa laco
ka tegorio
Ð° ÑĤ
âĢ¦ )
sis te
ri fu
end as
iz on
in ismo
bu oj
eran taj
ra taj
Po pu
tis ta
fa be
in sta
H ab
af f
ce li
mp lo
ent u
16 46
14 03
A ve
13 95
12 90
in ÄĿ
ci v
el li
K lo
ti to
oj an
ĸ ç
İ ;
L P
b Å
Â Ĵ
¸ Ĭ
sen depen
depen de
ÅĿ anÄĿo
Ġ2 530
De komen
ä¸ Ń
re gno
ÅĿ tata
oja ÄĿo
Ġ( ?)
ma ÄĿe
am broj
Mo rav
cent ro
par tio
lo goj
rb oj
g hi
av aj
iv id
ro vo
ta kt
en sk
12 47
23 57
15 86
10 34
20 87
li ig
15 50
16 06
20 95
v ek
14 26
al do
lo do
or ni
13 13
y am
00 10
v m
O O
Y e
; [
De komence
ag entejo
ev oluo
viÄī ins
os lova
hu ndo
in vent
pre fek
ri tato
we il
ze taro
und a
stra lio
de goj
v ismo
ver e
an tan
d ing
bi le
mi zo
ch es
po ke
ara d
sa do
be e
ir lan
tu o
no kt
15 46
ra go
l pa
F ig
in ne
ie lo
mi aj
na t
ma el
lo to
24 15
li ri
10 19
b Ä
´ ¾
A O
ë Į
bi zou
Fra Ã»lino
âĢ Ķ,
Org anizo
M onato
mi itoj
ÅĿ tj
Ðº Ð°Ñ
Ġ2 430
ri Äīa
sin joro
ar talo
kra toj
le fon
re pren
ra ela
B und
ler ne
per ati
mi ito
int ele
k alo
art io
Su kc
at end
ar bu
iÄĿ oj
f ing
en anta
ch s
... -
di cio
man te
ec e
18 31
p aÄ
po p
et ti
el or
18 21
oj aj
d st
o an
Í ¡
U P
µ ģ
g f
Å «
pre miitoj
in suloj
Ł æĪ
re ligi
mal kov
Ð½ Ñģ
te dra
esper anti
iri ta
f ini
f one
st ila
er vado
end re
on lin
an gl
la ge
z ak
6 000
ra mp
10 47
23 47
18 58
10 36
17 44
17 48
ie go
u sp
sp u
re pa
10 45
J aÄ
20 26
ti es
en ka
00 15
Y D
T U
viÄī 
Sand viÄīinsuloj
Her oldo
Kom paru
utsch e
stru kturo
sin dika
Uni ted
es plo
Ak cep
f eder
n lando
Fin nlando
ter ito
m ult
b ten
I ren
de par
per for
ort h
ism oj
C ha
id ojn
ono mo
er ita
ta lan
us c
per at
20 27
14 55
20 55
12 55
17 65
12 35
T ol
24 08
23 96
23 93
an ik
mo me
er le
aj u
to u
âĢ İ;
komi tatano
mallon gig
äº º
ï¬ Ĥ
resp ektive
Ð» Ð°
j anu
le mento
en aÄµo
Ã§ jo
B Ã¼
K Ã¼
rÃ ¼
li koj
os Ã©
ll Ã¡
du ob
ÄĿ erman
ord or
O kto
s ho
n ing
u ado
ta tis
u est
na bo
17 47
18 32
so v
14 45
24 04
12 50
D at
24 24
ti li
ko f
00 01
16 16
12 17
o ar
R io
¸ ë
{ \
X I
Kanto konkurso
pe ÅĿto
Buda peÅĿto
Of fice
sk Ã½
res kulo
J aÄ¥
emi zo
Äī efa
fek tu
fal va
Ã¼ k
pren u
ster lan
1 200
ing voj
n alo
k tika
en ata
h ero
ua ge
ko op
el ÅĿ
ro bo
us ia
14 47
12 46
20 86
10 33
10 56
u kon
po te
ik io
or ÄĿ
es oj
20 24
ta Äī
14 16
14 19
la in
Ã ĸ
N Ã
V O
Ð £
pre miito
AÅŃ stralio
Ġ1 5000
li bere
kir chen
In fano
tug ale
Mal kov
vil le
E fek
mi gita
hel mo
ban on
M inist
di koj
Ã¡ g
com mon
Ko vado
ern io
ia Äµo
li ce
ak f
ru aj
25 57
12 36
16 65
16 35
p ond
fi te
12 33
13 34
20 45
ig en
ur en
ek la
24 26
h le
S la
Ñ Ĩ
Ä «
H T
Ļ ¸
X u
Esp erantaj
ative commons
cre ativecommons
ef pastro
sted t
oku pado
Spe ciale
Ð¼ Ð°
Plej parte
in stit
Ver dire
fek tiv
P eter
atu re
K iuj
d Ã©
ni ca
era ci
on anto
vo f
18 74
13 47
24 27
14 36
15 33
16 34
14 34
12 45
30 13
10 50
il s
00 22
23 23
00 23
15 12
H as
in as
ra a
I U
S n
G D
Ä Į
Vil helmo
ëĮ Ģ
AÅŃ tune
fiÄī e
fr enez
eric an
fl utoj
De veno
la manoj
ne ws
fon to
g ment
b ven
su bven
ona taj
c pre
A kv
on iÄĿ
st iÄĿ
p anoj
z zo
ej ojn
ik ino
ÅĿ te
gra fi
re ak
16 36
17 34
20 34
er aÄ
13 90
22 98
20 98
it te
B at
na to
ar es
24 17
ar Äī
11 12
12 11
N am
nt as
st t
: ]
- /
Ń Ĳ
D B
é ĥ
V R
I k
mu zika
ne olog
Ġ1 289
Ġ1 501
dic in
fu ÄĿ
f are
F ern
ea e
p he
di loj
ur anta
s ha
... ,
en ÅĿ
ol ÅĿ
aÅŃ l
u ce
kt ant
B us
18 51
per io
23 87
23 06
17 92
j ur
T ik
z ie
os c
23 05
e pe
ci r
aj ni
mo l
c le
t ka
25 25
F ro
) Â
K y
Ð Ľ
Î ¼
ľ S
S Z
P N
ì Ļ¸
urban on
sam urbanon
erog lifoj
ll Ã¡h
ofi cejo
æĺ ¯
komp an
stra kto
ve gio
Nor vegio
ur gio
te koj
el ls
ale co
kri b
ris ti
flu o
amen o
os ef
ti ca
mal aj
mi ke
rd en
gi an
H im
eg an
16 85
24 57
16 55
10 65
10 35
13 86
12 86
00 04
ri da
14 90
20 94
17 91
on os
in pe
al om
ÅŃ ta
24 23
r re
al ia
ti en
11 14
14 10
ri li
h k
Ģ į
b p
ìĹ Ń
ser vilo
stitu cioj
parol 
er ikaj
Ð» ÑĮ
ich ard
Kun labor
su dor
y lor
ser vado
kti ke
Ã© l
ern 
amen oj
j uro
mu lo
tu ÅĿ
ks is
er tu
en ic
13 46
18 53
24 37
13 55
17 33
13 33
30 14
30 15
re po
il j
15 90
24 93
un re
as ik
P aÅ
le x
21 19
ra ka
as er
en ar
ro e
) =
æ µ
N y
£ å
K R
Ħ å
D z
Å ĭ
U C
å Ĭ
er konsento
int erkonsento
Pro bable
Del hio
su poze
por tug
te mpa
eb ree
N aturo
re spekto
parte mento
M orti
Sek vas
aÅŃ toro
s vis
al 
no van
b ero
ic ha
Po ÅĿ
L eo
it ter
10 46
20 37
15 28
13 44
24 87
ut ro
24 03
18 09
23 08
05 08
c ki
t po
iu o
ne to
05 05
25 05
de al
ÅŃ le
20 23
13 10
ri i
P V
Å ½
F G
? -
hi eroglifoj
ëĮĢ ìķŀ
ìĻ¸ ëĮĢìķŀ
vet urilo
Han kuk
Al berto
am erika
C xu
Åľ abl
ak tiva
fra zoj
 e
mal graÅŃ
la tive
f unk
ok ami
Ma uri
len bur
fer ence
te mas
ber aj
k ing
mu nd
F ron
d ank
ce zo
ig anta
ch in
h ap
el pi
mp at
00 37
23 27
13 65
20 56
il is
D ur
ur mo
ta ci
le ci
23 26
25 99
es el
22 20
11 11
li j
aj t
b h
W u
Â Ī
X L
D T
O E
Plenk reskulo
di rektoro
In fanoj
Ek stere
Ġ1 531
abl ono
Ã¨ re
Mul tajn
sch af
b rak
g ando
Ã© ra
on 
tin ent
f uz
di ris
Su pre
G ast
ent ajn
ca ti
ing er
i era
T op
vi taj
d ge
k ano
z eg
A mp
ul toj
ku b
20 47
17 84
15 65
Ti pa
ol da
25 08
06 08
ti kon
po d
C iu
P un
y pe
it is
na z
F lo
25 24
re ti
ri x
li en
ta i
¯ -
Ì ĥ
por tugale
Por tugal
rÃ ¼ck
åŃ Ĳ
pre fere
mi liono
L egu
Ġ1 511
pe ntra
K lara
ä¸ Ģ
to rita
em bre
esp ond
hel m
cent e
at ene
ek len
V ini
A dia
w ard
V Ã¡
ord aj
for ta
tra la
lan kaj
G ab
es sa
H ono
gra do
c ej
b ej
im oj
14 77
O ku
23 37
17 85
23 35
24 45
05 07
25 04
ol is
H ig
24 95
24 97
un me
22 99
z ko
11 15
am io
ľ :
âĢ ľ:
Z W
ç ľ
S Y
Z E
w h
ģ å
Î º
bu degoj
Pa cifika
we iler
kr istana
mal ofte
Ġ1 309
An 
ver sal
R ondo
Bio logio
klu de
fin ajxo
ment ojn
ÄĿ ust
ren a
are co
ent ute
kl aj
at ing
at roj
ist anta
av el
ri be
r be
be ta
or ita
gi p
w ak
ni fo
or fo
ks oj
14 46
25 37
22 27
15 38
24 65
12 65
ra so
25 87
25 45
25 95
c ur
V aÅ
it l
di is
re me
p iÄ
al lo
23 14
m ma
m re
U ti
01 00
18 11
r li
R as
D as
D C
? ;
£ a
} {
å İ
¯ į
âĻ ¯-
Ta ylor
inpe talo
aÃ ®on
Ãĩ irkaÃ»
ka toli
Pr inco
vi rino
Ð² Ð°
be daÅŃ
de parte
F ama
rav ia
tur n
ia Äµoj
stru me
kti va
ab rik
uz 
Äµo ra
kv enc
H ero
u ks
e us
13 28
13 36
20 35
20 33
23 56
25 03
25 07
05 04
23 04
22 95
25 93
al ne
z ek
f aÅ
it c
E di
23 17
ta ma
Ļ ),
ia v
Ĺ ¥
o M
f c
su bten
mor tinta
Ġ1 3000
sinte zilo
pre zidento
Vi zit
iÄĿ enaj
Ma gy
iu foje
ar ry
P lat
bu tiko
b ore
ob ser
ta bel
d uloj
te kti
s for
Se ine
kon ver
gu e
ru aro
fa do
R ab
aÅŃ ri
le zi
ci men
ita t
13 77
10 77
24 47
18 43
26 27
23 55
10 44
e pa
b aÄ
60 20
17 89
id ra
24 96
Äī et
22 97
25 98
25 94
05 18
pe o
ÅŃ n
z at
24 99
22 15
22 25
¥ t
Ł å
x x
sak flutoj
âĢ Ŀ!
ç§Ł æĪ¿
Para lele
Ã£ o
???? ????
zamen oj
der landa
b udh
nu kle
C amp
ark in
d amo
mer co
ti lon
en ste
s he
ra bo
8 000
on ja
fi rm
ul ga
ir on
? ",
17 38
15 44
32 86
10 88
22 87
05 03
23 07
08 07
w ig
ed ri
po le
25 96
10 90
et to
un n
ur ni
in ik
26 00
an el
00 24
ta st
m ra
x y
Â Ģ
· å
â ĵ
³ s
j Å
ÑģÐº Ð°Ñı
le zia
re gul
ol dat
de vig
um eron
na tion
O pen
ar bon
kst ra
ene zo
ista raj
b ando
sek so
do moj
ont an
ch us
sta la
ce an
pi lo
23 36
13 35
23 48
ur ist
id as
ol z
ol no
ng e
25 97
22 93
ant h
05 26
26 05
22 26
00 99
nd or
23 13
25 15
25 10
D al
ko st
01 16
en no
y on
p b
Ģ å
Sta tuo
Su fiÄī
Mal kiel
Äī ambro
la staj
anta ÅŃa
Ð¾ Ðµ
ne joj
P onto
vol uo
kur s
fer voj
ven cio
B Ã¡
rin da
ar ang
K ona
al of
un ismo
gi nte
re zo
Äī iam
st ino
pa ge
af ter
Sch after
ce go
fo b
ok am
p per
18 29
12 28
ki go
25 33
23 33
io da
24 98
05 94
de u
de f
d le
is ka
ri h
C en
S V
Q S
Ķ ¨
Ä ĩ
T N
T F
sam sekso
Äī sintezilo
vo Äīsintezilo
kst urmo
par ksturmo
Fi lipo
x ury
Resp ubliko
ed rich
pr inci
paro lo
end aron
V aÅĿ
³ Ð¾
re tur
Lo ire
A kti
in alo
sk Ã¡
is tem
uo ka
J ug
ton e
hi ko
la pu
enc an
tis ti
h ono
ce v
7 000
ost a
al ot
kt ist
16 77
V ent
17 83
ru g
26 57
20 36
22 86
12 48
24 33
jn s
23 03
al ve
26 07
26 04
o kon
23 50
26 98
mi ra
am at
el ka
O nd
01 15
a as
in m
Ļ e
Ã İ
F L
ĥ ³
Y M
j c
Ĩ ä
Â ¹
Lo ÄĿas
te kno
s geme
est erw
Ġ2 580
Ä´ urn
Ðº Ð¾
Sen naci
ÅĿ tel
vol v
ma ksi
den oj
enc 
na tiv
ri ÄĿo
r Ã¡
Ã¡ c
ist nas
ple ks
B ast
et ero
te ca
d anoj
re ch
er ke
um ba
le ono
at ano
A zi
zi to
men co
17 67
a ir
17 76
us on
20 46
18 41
15 48
fi r
26 87
09 13
05 06
il u
ur do
ÅŃ en
26 18
10 22
00 25
- ),
te la
n ra
é Ģ
ļ ç
w u
Fri edrich
al bum
ÅŃtra la
__ __
erw ald
West erwald
len burgo
Mek lenburgo
iu okaze
am bron
pag ando
inj oroj
an ima
pa cienc
unula ra
Inter naci
V ola
pli bon
ve sto
gar den
me zu
mb raj
Esp Ã©
Mal fer
R uman
ig ante
al bu
ar taj
u ojn
E gi
fo ro
u ac
16 67
mp aj
16 76
25 47
30 37
25 56
12 88
26 06
22 96
05 96
P il
et is
ie w
li mo
mo p
j me
15 22
ka li
te p
st s
is oj
T s
« l
re turn
oh okami
f unkcio
ma lami
Ali vorte
spe cial
Ġ1 321
Ġ2 340
lekt oj
Ð¾Ð ¼
lingv is
Na tion
ma tion
H Ã¶
uo kaze
H und
36 960
l 
en Ã©
s ber
po eto
ra ina
L ua
av era
ha va
id ino
lin d
r ÅĿ
gra fo
ta vo
an ja
13 68
per f
24 55
20 28
24 35
24 56
me co
ig na
26 08
da y
23 90
ar it
22 23
am as
la is
g Å
è ¡
ĭ å
O o
j anuaro
Fund amenta
s 
LaÅŃ longe
ĭ Ð¹
rolan to
Ġ2 640
Ġ2 480
far itaj
Ð½ Ð¸
teg ori
ÑĢ Ð¾Ð
aÅĿ ing
: âĢ¦
ir inoj
b enk
na cian
sek ven
c ert
s Ã¡
l are
ho w
pe ca
c tor
en he
V era
er ado
en zo
ab en
ara to
in ge
M ono
me jo
me ga
tu ga
06 37
25 86
pr u
p so
30 96
il k
en et
di um
g un
13 92
00 05
na v
m ko
as n
ra o
on h
_ (
Ī Ĩ
| |
ª å
è ½
Mon umentoj
Ne modi
im perie
sek undo
Li bere
sa hara
kilo metra
Jo Äījo
v embro
no vembro
et nam
sal uton
mi lita
ãĥ ¼
gv idanto
stru a
un 
ung s
tem po
V end
ine to
c ajn
l ero
or ojn
k str
aÅ Ŀi
el lin
R ec
ro ks
15 77
ul us
ru co
26 37
18 52
re vi
25 65
23 65
14 88
nu o
60 24
ve de
kon o
ed ro
r da
26 97
or ne
L un
14 92
I ni
na u
me mo
la f
¦ ).
B in
) ]
Å ¼
( /
¶ h
" /
è Ģ
v t
kvadrat 
kv inpetalo
tedra lo
ob jekto
Ġ1 631
ef pastr
Ġ2 542
Ġ1 591
Ġ2 460
ra jt
li bra
bl iografio
s rÃ
ultu re
st atu
Åľ anÄĿ
voj a
be sto
Ã© k
ur foj
ber s
ug h
ra ton
e tik
mu ma
Ka ze
el and
st int
ta be
00 000
ej me
im m
o pi
ot on
17 66
14 66
g us
50 47
05 47
15 58
13 85
39 13
20 65
14 44
10 48
mi go
26 56
mo ve
20 50
il li
Ġ200 90
05 93
22 94
ÅŃ de
it y
26 26
ar no
m ta
to c
. <
K Y
L F
X a
su fiÄī
Re vuo
chaf t
Ġ1 681
ver sion
E DE
Ġ1 221
Ġ2 560
fe bru
Ġ2 380
vel oj
LE I
Ð° Ð»
Li bre
ur foje
S erio
ÄĪ arto
Ã¼ ll
pri m
ore u
bel oj
za Ã»
ment s
ven on
Ka tal
ed 
or 
r uman
g ho
tik va
f ont
v ing
H eb
on ÅĿ
and al
o be
su pr
ia lan
te bl
man do
24 46
05 37
05 57
33 27
24 44
ond an
24 34
06 03
a id
07 25
06 04
se b
ran ko
u tr
Äī ie
a os
os n
V ek
K aÅ
O ma
01 13
æ °
v c
æ ´
Ï Ħ
ç ķ
¿ Ñ
H B
gub ernio
Bot aniko
J PG
Ste fano
zamen o
inci po
Ñĥ ÑĢ
Ġ2 429
Re ich
kon tiÄĿ
ko mita
ci Ã³
lor oj
b aroj
B erg
gra mon
en au
ÄĪ ev
li ajn
en ado
o zo
i ojn
Li br
ag on
ar ion
v isto
ik isto
J ud
17 72
15 76
ru st
36 37
15 85
05 27
25 55
00 55
16 38
14 38
36 19
00 35
20 88
23 88
so la
05 87
06 07
20 90
ant io
in na
is me
B es
14 22
an f
P U
L D
W y
C Z
jn seminario
Mal faci
ra jta
Sam kiel
ar tistoj
L enin
Kar leto
Ġ2 642
en keto
ka pti
ki gita
Ku rac
n ÃŃ
Pa stro
' '.
lÃ ³
Ġ.. ....
ver koj
d 
tiv ulo
tt en
n eni
ik cia
Äī ilo
do kto
Ne pre
er pre
' );
Åľ ton
ont on
ar ing
aÅ Ŀo
i fa
s ino
ap h
fe to
mi lan
pl ia
h eg
mp en
ga ti
te toj
25 35
05 56
04 45
60 96
A et
l ne
ur ia
it on
ÅŃ li
I do
lo ma
16 22
13 22
w en
I ra
D W
Ã °
C B
± ±
¼ a
P Ä
É ĳ
Verband sgemeinde
s rÃ¼ck
Arg entino
In fana
ra jto
I afoje
ar meo
c embro
de cembro
k elkfoje
ÅĿ arÄĿ
Ġ2 440
di gita
stan co
sp orta
Ã¼ t
mb erg
su den
olo gi
lin ioj
le ÄĿo
M Ã¡
ÅŃ don
J are
. Âł
B ea
tra j
ante co
uro pa
er taj
A pu
av anta
B ag
z isto
as por
N aÅŃ
vo lo
x ac
38 16
28 07
14 28
24 36
in gr
26 45
60 94
va te
08 15
z ad
05 98
05 19
nt ek
at m
V el
or ka
00 11
ta in
Ł en
j g
+ .
Ä Ļ
§ Ù
Ê Ĵ
B M
ĳ æ
Hun srÃ¼ck
isda tigo
åľ ¨
Kre deble
sch aft
Pro vinco
tag me
vor tojn
v ski
v rita
ri gis
S erb
ulta s
aÄĿ oj
y th
ol ando
A pli
h ris
am ple
vi nte
ste co
ba bi
ÄĿ aro
as isto
d ano
R af
ki vo
ie ter
si r
T ru
00 57
16 28
06 35
13 88
ra pa
50 87
30 12
30 24
02 10
ran z
06 16
05 97
c um
D un
ie v
en os
ta h
f to
æ ŀ
Ø ±
Ĩ i
ģ Ħ
+ "
á ĥ
Ï ĥ
Ã ¹
L Z
Im periestro
Sur voje
Ar tikolo
stitu cio
Ġ1 691
Inter ese
Ðµ Ð²
sek sem
em onio
c lif
Ð¾Ð ´
maj stro
s inj
Ko bur
fin ajx
Du dek
in dek
ci uloj
ig noj
st rik
Dum tem
Ġ 008
ef ro
ze fo
fe mo
sa ro
vo ko
M eg
ti tu
d us
ra si
16 84
25 85
56 57
06 57
10 38
10 28
16 32
N ut
14 30
ur se
on se
06 06
F ul
am ul
ik ti
ik ar
er ci
do t
» di
di to
le ti
iÄ µ
ti te
to te
" +
b g
¿ å
O D
R K
P M
y h
o L
V D
al bumo
so veta
PE CH
Ko burgo
Ð½Ñ ĭ
Ġ1 489
I tala
ä¸ Ĭ
lo ÄĿanta
ces o
iri to
Dum 
har mon
ult eno
ta Ã»
Ã» di
pl ane
on ven
Ã© d
Äī if
lan don
on ajn
p ina
or ante
or tan
mb ol
S por
fe jo
ci ita
Ļ .âĢĿ
ej mo
14 67
ve ga
L og
ov oj
26 47
17 58
14 84
12 85
14 85
45 27
36 98
33 35
14 48
13 48
04 33
23 34
ÅŃ so
c lu
07 18
04 24
ol ar
ran ÄĿ
08 08
po ra
15 92
os en
mo to
lo ka
20 22
ri Å
I no
am in
aj ar
an m
R P
ģ «
é ¦
I X
é Ľ
Bra zila
Re ÄĿino
par topren
su kces
volu cio
Ġ1 411
el onge
Äĥ u
raÄĿ aj
ar igo
kon cent
g ene
Ã© ri
kt 
d anc
v ari
ÅĿ par
tan is
s anoj
on anoj
enc ia
Ŀ ...
ma raf
na cio
d lin
um bo
lan te
15 66
og a
ti toj
on tu
ov ig
12 77
li ent
17 78
17 54
04 37
12 84
56 27
22 65
08 86
06 86
I lu
40 26
ut b
is co
co la
04 04
s va
ro va
¥ em
h ne
o un
li mi
mi ti
ro do
G U
Ã ļ
Ã ĺ
tre jnseminario
kv artalo
des egno
tu gala
Ġ( âĨ
ðŁĺ¨ðŁĺ¨ðŁĺ¨ðŁĺ¨ ðŁĺ¨ðŁĺ¨
ðŁĺ¨ðŁĺ¨ðŁĺ¨ðŁĺ¨ ðŁĺ¨ðŁĺ¨ðŁĺ¨ðŁĺ¨
ä ¼ļ
w ake
Re ferencoj
**************** ****************
ti tolo
an imo
D enis
ãĥ ³
N AS
ka pit
Ã¡ sz
K urso
poz io
per fek
mun ismo
ï¼ Ī
iste mo
in cip
Pri ntempe
´ Ð°
v und
918 300
eta ÄĿa
ju na
ven is
ven oj
ls ch
G ali
ord oj
for to
ta don
Ġ 007
d ern
eri za
ste la
mi loj
el pu
ub s
ha u
ur ojn
kt ojn
u ke
ÄĿ isto
isto fo
vi ÅĿ
g and
a ud
su k
9 000
g im
E ter
23 77
45 47
25 46
00 53
07 37
per as
38 57
05 55
13 38
17 28
24 48
17 80
i pa
' ".
04 07
08 18
06 00
24 90
ur no
de tr
s na
ia me
ri es
18 01
ia f
j as
as as
is b
C L
ä ¿
× ķ
³ ¡
D V
Jo zefo
Kva zaÃ»
lin gvan
po ezio
ra jtoj
ver kistoj
Na tional
Gra veco
pri vata
pro tekt
dep end
Es cepte
gy ar
Ġ1 311
ojek ton
A TO
Pre zent
Ba ins
en hav
º Ð¾Ð
be zon
ub ile
kti ko
ik 
O kul
ci ulo
kto roj
k ern
s eri
ci ismo
iÄĿ an
lin i
ÅĿ ka
ba te
j ono
ond ono
ak si
to man
ne ga
es si
s si
06 47
05 46
14 58
36 27
50 86
45 87
ol n
d da
an iu
g ik
m ni
lo l
j ma
c te
¥ oj
Î ²
H R
B B
ent repren
Ø§ Ø
Ren omaj
gra matiko
Ver karo
Inter reto
fu nde
Ġ1 211
fi ziko
Ġ2 540
 Ã»
j unularo
na tive
S ES
uk ces
Kom uni
te bla
a komp
lit z
ri mar
sk ulta
aÄµ a
bro s
la lta
b eno
tin da
k art
F ari
tra kto
t for
for d
ri tan
aÅ Ŀa
nt ado
u anta
o fa
po sta
al ÅĿ
int er
c sa
om bo
ak oj
h man
ec an
st ec
en eg
tu no
24 77
us l
on si
36 47
33 37
i fi
da go
07 33
08 87
45 96
06 45
s ist
ran co
02 23
08 04
08 05
00 08
ki p
24 50
il f
ul es
00 26
an es
en or
y w
O g
B G
U F
´ ¨
maraf m
ne marafm
con nemarafm
âĢ Ļ),
Is lamanoj
lic enses
ble licenses
pati blelicenses
com patiblelicenses
ele ktisto
âĹĭâĹĭâĹĭâĹĭâĹĭâĹĭâĹĭâĹĭâĹĭâĹĭâĹĭâĹĭâĹĭâĹĭâĹĭâĹĭ âĹĭâĹĭâĹĭâĹĭâĹĭâĹĭâĹĭâĹĭ
komp leta
ma tema
Pre mion
ÄĿ usta
ligi aj
mo toro
ca tion
p rak
rib ita
on ume
gre se
ata koj
an ÄĿa
st raj
V ers
to lon
g xo
li ver
on ver
id anta
ke jo
ci fa
pe cio
sta bl
b ÅĿ
ÅĿ ita
ge st
ud io
o pl
O rm
tu do
25 77
. ",
P ic
10 58
16 54
08 37
37 25
35 57
08 57
04 57
42 94
04 27
35 27
88 59
26 55
26 36
lu k
ut en
ka da
et z
et ra
ad u
ur j
es ie
N el
aj k
y to
nt j
âĢ į
N H
¡ Å
º å
ï ¾
R F
¦ ,
¯ å
V C
de partemento
par lamento
teg orioj
Pre fere
ta belo
a para
Ĥ anke
for mojn
V aria
A gado
pu lara
de fen
F ES
B ach
lon gaj
pa rado
b stan
fic ej
dent ig
B ene
oni ka
ga raj
Ã© c
Ã¡ t
ov Ã¡
tra to
ata l
pe za
za ti
A bu
v anoj
T ak
vo d
e ac
pe ac
un ec
17 75
b sk
ru j
26 46
35 37
24 85
48 27
32 94
ran go
22 88
so g
50 45
08 45
13 02
va c
C ig
nt ur
os h
P ek
om Ã
an ni
17 22
x ar
G on
Ã Ħ
g j
L R
âĢ ¦).
Li bereco
P inus
Po pul
Mon aÄ¥
fi ÅĿo
pro gram
Ġ2 470
esper antist
Ġ2 360
ma ksimu
ver sita
us onaj
st tag
o logio
V orto
mis ion
en bur
ig ite
du dek
man ÄĿo
ue lo
gv on
M eto
oc ial
up in
ent roj
lin da
P ano
man an
vi ru
ru li
07 47
37 37
03 37
20 85
27 57
36 45
36 56
08 35
26 35
A go
26 34
07 87
m um
ÄĿ s
de ko
mo f
22 22
La ma
v ka
ti ro
no d
g te
io a
ta o
x ro
H D
Ļ ;
A a
S X
á ¹
į âĢį
àµ įâĢį
int erpre
in ÄĿeni
pos edanto
leÅŃ tenanto
pro vizo
mal pliaÄĿ
tribu oj
De mokrata
ek stere
na tional
su pozeble
ek zist
Su ï¬ģ
Hol stein
å¤ §
Z amenho
Nov jor
Ð» Ðµ
in sch
ÃŃ a
Ġ* ****
i ras
Ã¶ h
ÄĪ iun
tur on
bur ga
S erv
esu me
C las
R Ã©
for e
eri to
ug os
ci kl
c ina
ar isto
ul ba
Ġ( Â»
P ir
vi r
48 57
28 57
28 13
97 86
12 32
00 03
ra ki
is kon
50 10
00 96
ci da
00 97
un p
91 10
er os
ti ci
do ra
ti u
ta p
a en
I Z
Ö °
´ n
! -
Y A
¡ e
F C
a B
âĢ Ļ.âĢĿ
And aluz
lingv istiko
Ġ1 1000
ÄĿ intoj
gel io
Evan gelio
Ka rolo
su bt
fes ie
urn alo
nik il
re spek
po vas
tiv igo
orie nte
S tad
vi val
la vaj
var ma
te Ä¥
ri kul
tem pa
cia ti
uz io
le tra
Li ajn
ere da
er ez
ar anoj
erm u
om br
ag h
ÄĪ ion
av or
or ÅĿ
ge co
sa y
om be
zi v
es ita
ud is
17 74
ri tu
20 77
per k
03 27
20 38
28 97
05 44
48 08
50 33
24 88
sp ra
03 87
45 12
id el
ol va
ol le
08 12
ki ri
06 10
da te
M un
tr ia
ie m
pe te
t ma
te u
o en
st h
Ö ´
+ )
Ë Ĩ
M r
z r
pro gramon
Ġ1 7000
Pr incipe
eve ntuale
iaÄĿ ulo
tra dicia
Alt enburg
ol nok
en havo
çĶ ¨
Ð¾Ð »Ð
Ġ1 491
Ð½ ÑĮ
did at
Kr 
hav en
vad a
a ktu
le gio
stru is
den b
lek so
ra ss
kt ura
ier oj
Mi rin
em ble
C hu
bl ajn
e ver
ti gu
is tan
si mb
in ing
ka tis
o por
ap p
bo x
zi nt
C ita
diÄī oj
nc h
ku ir
14 76
17 82
17 81
17 63
s vi
16 39
27 19
05 36
08 36
26 65
16 30
is ig
ran e
08 10
et un
al et
u et
st um
ur ta
L os
de z
at n
li es
25 22
en re
17 11
as ar
- ).
on m
C M
" =
S w
B j
F S
æ ī
¸ į
á ¸
Sz olnok
Ġ( ');
Bi bliografio
Sa laton
ki lometra
arte farita
Ń åĽ
ä» ¥
Ð½ ÑģÐº
è¯ į
naci eca
Nov embro
ing tono
Ġ2 280
N omoj
ÐµÐ ´
kon fes
fo bio
ti paj
Åľ ati
P ens
or gan
ra ven
/ âĢľ
ber ec
ri lon
il van
ine jo
h ana
tik ist
ez ia
ha el
h ag
ur isto
t lin
u ita
o fo
man ta
ec em
eg ul
10 76
D ic
23 85
38 12
06 36
35 10
30 35
17 60
03 17
17 02
ol or
al um
T un
R ik
mi en
p ÄĿ
H it
c ci
me i
in Äī
j al
ko ta
aj aj
Ù Ħ
" Â
j O
å ¯
w l
U B
¤ o
! ?
M c
? :
° å
P b
ren kontiÄĿ
çī ©
u cele
Ń åĽ½
dika tis
ci eton
mokra toj
âĢĶ âĢĶ
va gon
val ent
Pro fu
ista ra
s Ã©
t ung
ra cia
T eks
st ero
a ero
R he
e taj
ri tis
du c
17 73
ot er
10 66
- ",
00 47
27 37
00 49
15 84
10 84
27 05
28 27
24 38
45 33
56 56
05 34
03 16
t ve
Äī ig
r kon
A da
ad er
e um
on ik
mi er
al ÄĿ
99 99
ri le
O re
v am
p am
or z
st p
× ¨
¼ Ģ
Ö ¼
¢ r
p j
Ŀ /
Res ponde
And alus
F ondinto
Pre mioj
ven dejo
ÑģÐº Ð¸
kva lito
ciala Äµo
Kun rei
Kon sil
aniz aj
J unula
R ES
en aÄµ
- âĢľ
b Ã¡
G ust
lo rad
en ver
Äī ado
ip lo
est ra
i ba
de ano
kon ce
al vo
eg al
12 66
12 76
is si
13 58
16 49
30 33
34 03
15 80
ig ant
V ig
93 95
12 92
de mo
er it
es b
am ma
no w
ia to
h ro
O B
v Ä
n O
} =
I H
F P
¥ æ
Inter national
âĹĭâĹĭâĹĭâĹĭâĹĭâĹĭâĹĭâĹĭâĹĭâĹĭâĹĭâĹĭâĹĭâĹĭâĹĭâĹĭ âĹĭâĹĭâĹĭâĹĭâĹĭâĹĭâĹĭâĹĭâĹĭâĹĭâĹĭâĹĭâĹĭâĹĭâĹĭâĹĭ
rolan ta
e fiko
f rua
ÑĢ Ð¸
hav as
ekti va
de joj
te joj
Ã¼ rt
AÅ ¬
!âĢ ľ,
rik ta
eri ment
par ten
ura do
tal aj
ag 
Ã¡ z
Ã¡ b
k ari
no kto
ri moj
ani er
tr ank
T erm
est e
F ino
ba st
ku bo
im bo
fo lo
pi ro
E pi
pl in
ga c
13 66
sk oj
per ku
f us
us an
16 58
28 37
56 55
12 38
29 19
34 35
02 86
33 86
32 17
07 34
15 60
03 15
id en
16 02
va g
ig x
26 90
re ad
ie j
e ek
t ni
en iÄ
lo i
ar h
to ta
U nt
Ð ķ
© é
B Y
âĢ Ļ;
Pl urfoje
Ti uokaze
ac eae
li bereco
.. .!
Î± Î
mer kato
oper ati
be daÅŃrinde
G ardu
di ciaj
K EL
ak toro
Kom enco
Ã¼ r
kra ti
B urg
ing vaj
R esu
ten 
b raj
fer oj
kri p
nt emp
u ang
h uman
don on
au x
d eri
z ajn
Ġ 006
ro zo
R ub
pi do
ter m
24 66
al tu
in sk
ku ti
61 15
04 47
38 47
45 46
04 46
10 85
17 59
36 36
56 36
04 36
26 44
13 32
06 34
20 30
co le
ol Ã
B ig
25 50
d na
or el
le e
E lo
16 11
s no
G am
æ ł
G j
m O
Ê ģ
" '
é Ĥ
L N
N L
Î¿ ÏĤ
No wy
Î¿ Î
tag meze
az arde
ei ÃŁ
O ax
dat oj
re ÅŁ
F lag
V ojo
Ð° Ñģ
Ġ' ''
O fic
est onta
ba ras
la ck
sen ce
Ã¡ k
t eni
ci ajn
k ante
ton oj
T uro
ta tan
ar tik
ion oj
ve ge
ik ano
on ano
ist ano
af a
g lan
ku ro
si ka
34 46
34 36
07 35
17 32
en go
34 33
03 33
08 56
50 34
pr in
se pa
02 87
la ve
ve li
i ig
il de
20 92
P ur
os lo
v aÅ
24 22
ma z
c ka
al st
in y
nt Ã
à ½
q a
Z h
âĪŀâĪŀâĪŀâĪŀ âĪŀâĪŀ
---------------- --------
âĢ¦âĢ¦ âĢ¦âĢ¦
ci Ã³n
si dejo
Sen depen
Kon serv
ï¿½ ï¿½
Ġ( ï¿½
infor mado
int eres
A PI
no mbroj
ä¸ ī
Ġ 034
lingv oj
stru mento
er ry
eo wiki
c ultu
er din
Ã© m
A rad
eri oj
um ana
st ajn
ani ka
ci tan
F eb
ron t
ron oj
iu loj
ent ado
ip oj
il anta
s enc
ab ita
or sa
ano ra
i bo
zi oj
ol fo
im no
ter n
10 67
' ",
ent is
H us
kon si
P si
on ic
27 47
56 47
03 57
33 55
04 55
23 38
04 65
07 56
00 45
13 40
03 19
04 03
ve o
00 09
00 02
14 02
26 50
um as
n ne
ro mi
R at
es la
10 11
io c
Z in
o er
į k
× ľ
Î ¯
. $
P F
VaÅĿ ingtono
Ġ1 8000
fek tujo
Po pula
e estis
Ga zeto
Uni vers
mon aÄ¥
do mojn
lab ore
dia lekto
gal io
ci etoj
Se pte
fen do
L ER
Ðµ Ñģ
Ð½ Ðµ
v igo
ig non
Re vol
mal san
laÅŃ ro
zu ri
tu doj
res ojn
al eto
re for
dis don
ona co
W ei
g ana
ar ina
V ero
j ton
mo bi
to loj
on taj
po pu
tr ojn
ni ke
ke y
p isto
ab et
l lin
po gra
ve bl
vo ka
13 67
15 67
26 66
us z
si li
07 46
15 53
43 94
65 27
27 56
44 94
15 32
kon gr
u fi
04 34
S ut
10 30
se lo
ie b
do f
ka ti
y al
an no
Ġ" ).
ra y
å ¥
Ħ æ
b c
Q a
Ļ :
Ĥ ¤
Naj baraj
Tra dicia
ï¬ģ Ã§
Ma zur
ÑģÐº Ð¾
vers it
N PIV
eb leco
B udh
dor iente
Ġ1 301
kun labor
s Ã³
use co
?âĢ ľ,
las o
fin ita
ter ane
medi terane
rin oj
ask la
ask lo
ta lk
il lon
ern is
d ana
Ti ajn
ist era
ub st
ap el
c ap
sa ba
ri toj
15 64
03 47
28 47
38 46
13 84
50 35
50 44
25 48
03 56
26 88
no ve
re ve
as co
ma po
il da
L um
am ant
- âĢĿ
ni j
ma te
17 01
F as
io to
f st
V on
Į º
Z A
f j
% ;
O i
Ĳ å
h f
Ã ²
rifu ÄĿintoj
pse ÅŃdon
esper antista
Ra konto
º ç§Ł
k lano
F ondita
komun umon
La boro
ek zemplo
äº Ĩ
vel aj
li bre
anta ux
la ux
Ġ--- ----
sp iro
ï¼ ī
Ma lav
S itu
re kte
A pri
kci oj
mal bon
dis koj
E lek
oni mo
Ã© p
cia lan
mon de
F ort
ing ton
bu nd
uro p
ma tik
P ont
pro gra
op on
ek taj
us ch
ke do
z ab
aÅŃ no
er aÅŃ
P ak
mi ga
20 66
13 76
le ku
ku te
si de
17 70
16 42
27 03
25 38
33 36
50 36
65 20
04 44
26 48
re go
to go
10 80
pa ci
S pa
15 40
12 30
h iu
16 92
tr io
os la
di mi
pe la
W at
Äī k
al Å
al as
h ri
as b
aj m
o oj
is z
W r
T K
B U
ĵ ı
Ġ1 6000
ä¸ ĸç
C lass
sek vence
ep iskopo
math bf
po tenc
tekt anto
S kot
âĢĻâĢĻ âĢĻ
ra jd
sig nif
spe ciala
Ã¨ ne
R iver
int erÅĿ
zik on
F rua
L eÄ¥
EL I
Pal estin
Ðº Ñ
teg ia
de mia
itu acio
te ben
ni cip
pren 
pen sa
ati vo
gre sa
ura s
rad aj
pe nto
uman n
eks ik
N ob
ma don
on ismo
ver k
io za
ri ero
tor y
k tik
bi lo
om era
nd ian
re ado
j ub
N az
G raf
k ino
ÄĿ anto
ro lin
ÅĿ as
F aÅŃ
ja ro
ta ks
ir m
ÅŃ tu
ent h
65 47
15 54
20 84
22 85
57 57
35 36
35 35
45 35
ro so
96 45
L ut
ri co
04 10
kon i
mo ci
at j
at ia
r lo
ko w
15 11
T as
W an
K Å
Ł u
z v
Ð §
Ti ucele
ti tolon
âĢ Ļ?
Ple jofte
Mal simile
da ÅŃri
F unkci
gl ish
pag and
Ġ1 391
Ġ1 401
ficia le
O ficia
nik iloj
komu nikiloj
b itaj
ãģ Ħ
En hav
mal hel
per aci
vin jo
A vin
I doj
Äľ ard
K art
A kc
B res
Åľ Si
F iz
L ern
ial ismo
b ana
kl ar
ver b
kon ton
C ho
u ez
ont in
he in
ul ing
hi lo
ir ch
o br
el ke
ir ino
ab u
F ara
lin io
e be
pa ce
ra ce
c eo
16 73
ci ent
20 76
ru se
25 84
07 55
41 12
07 65
04 35
06 44
04 56
08 34
05 88
50 88
45 88
lu ma
R iÄī
e et
20 91
C at
me do
mo z
W as
g p
> >
c f
g w
* "
è ®
Naj baras
Mic hael
x haven
su bstan
Her cego
ï¬Ĥ anke
aÅŃ skult
Ord inare
Ġ1 4000
g imna
Ar tikoloj
Ã« l
G DR
ler nado
P osed
sam kiel
uni versa
S Ã¢
sid er
o blaj
B ild
do ksa
F lanke
re gion
Ð¸ Ñģ
Ka pit
Ðº Ð¾Ð
ak tive
Ã¡ ny
M Ã¶
L Ã¼
j onoj
era ÄĿa
anta ÄĿo
ga Ã»
v Ã©
lan dan
ik ue
h ang
Sam sek
v ana
ÄĿ ante
ez aj
ron i
te loj
S hi
al pu
kt anta
int ra
ko bo
z ac
ok io
eg ra
D ir
pe toj
sk ur
16 83
12 58
17 53
57 37
57 26
17 42
00 27
fi z
06 88
id d
h ig
ad aj
a um
un al
o os
V it
F is
G n
ķ Į
ä¸ĸç ķĮ
V Y
V Q
Ê ĥ
V S
F F
M t
âĢ ¦,
K onataj
Pre cize
or ganoj
H onora
Kon stitu
bi liono
Ar meo
Ber lino
an gul
dik anto
Ġ2 660
is che
german 
g rim
mun 
sp ira
gh av
is lav
L eter
gra vaj
und es
it ler
ser vi
le ÄĿa
pl ene
La tin
ord an
an ea
ÄĿ ero
in ca
le je
C ez
c ke
d ino
P ap
st and
and r
on ce
15 72
ga ro
el ga
ga b
05 77
22 77
13 78
24 76
so us
14 54
97 37
14 41
08 65
05 48
34 48
as so
ÅŃ pa
pa k
16 60
ed ia
S et
ar et
e un
st ik
om ie
En ci
do g
ra el
el j
m lo
h ma
' ..
am t
Į è
- '
b z
Å ŀ
[ [
æ ³
A vinjo
sttag meze
âĢ Ŀ...
Esp Ã©ranto
se zonoj
E ventoj
Si milaj
Ofi cejo
.. .?
fa beto
A reo
depen da
kv iet
âĢĻâĢĻ âĢĻâĢĻ
erik ano
te lef
te mper
in stituto
Äī eloj
na tiva
labor is
na zio
M asa
cep toj
L Ã¶
lÃ ¤
in cent
erb io
c erb
ni koj
kta s
po laj
E coj
ten co
ard in
wa y
F orm
gar do
res ko
ra van
graf ia
am ea
D isk
Ma up
c iÄĿ
m ing
U nter
od ne
an iel
fe sta
tr anto
ÄĿ ita
st ita
er ak
R ej
17 71
ter aj
34 77
12 79
us ko
15 61
63 08
27 46
12 54
43 86
17 49
90 27
55 18
25 28
sp re
17 40
ne m
ne u
00 98
un ko
00 94
S ik
al pe
L ek
it en
ni u
16 21
ka b
aj to
W en
h st
æ Ĭ
y f
Ĵ å
Ö ·
' ?
ı ¯
H K
Ja kobo
âĢ Ļ:
J unulara
ler nejoj
pro cezo
Pra ktike
Ka tedra
Ko lomb
âĪŀâĪŀâĪŀâĪŀ âĪŀâĪŀâĪŀâĪŀ
Mal ofte
ge mein
oj igis
-âĢ ¢
Kia maniere
ÑĤ Ð¸
ru sia
g mento
zi cioj
w ink
urs oj
ur 
ment aj
t Ã¡
ÂŃ ÂŃ
mi rin
do min
L ob
D ona
int ern
k ero
da taj
ch b
lin ion
er ion
or anto
nd iv
C iv
lan g
nt ec
ok al
12 73
20 67
12 67
tu so
26 77
us u
17 51
35 46
23 58
16 43
55 06
00 36
17 31
00 86
03 86
10 32
17 09
95 08
re kon
en at
do lo
na ro
ri el
re li
ar ri
n no
A no
la Ã
m la
b te
z w
O U
ľ ç
U G
> )
Ð Ĺ
: :
Â ħ
- Â
l É
é Ļ
ÐĴ Ð¾Ð»Ð
R esume
Ma upin
Ġ1 9000
Ram zes
gua ge
en ergio
Al bert
GG G
labo ro
gig on
por tun
volu cia
temb erg
ÑĤ Ð°
naci aj
z erc
Unu foje
p tado
Jo han
n ama
Ã³ s
Kom pat
pr inc
Ã¼ ck
vis a
mal permes
g lit
bur n
bur gio
rak tika
pon oj
h erb
ie der
lu doj
ern ando
D Ã©
g 
Ã¡ ro
S Ã¡
De par
ÄĿ iÄĿ
ed era
na zi
ni ce
N eo
ks em
K ost
16 72
V og
23 76
13 70
12 70
52 93
28 55
13 29
14 29
23 28
00 65
34 44
44 45
96 56
e jn
al lu
16 40
nu k
15 02
li va
as kon
po di
da u
97 20
ant ia
10 92
ur r
y os
de d
i ÅŃ
el ia
di p
le ma
N es
lo f
ko g
er li
W V
Î ·
È Ļ
U V
ç »
å Ł
C V
Ĥ £
L B
J N
· Ñ
C K
¸ r
y j
ī æ
j j
Kon sekvence
Rim arku
mal faci
of erojn
pil ko
T RO
jek tiv
Ver lag
B anko
Te orie
for mes
te gio
f raÅŃ
anta Ã»
un elo
re ven
ig ura
H Ã©
LaÅŃ ren
ali z
lon e
en ato
en ajn
lin gu
iÄĿ ante
ed uk
b orn
t ste
nt iÄĿ
K anta
P ino
av is
G lin
ar ano
su b
ak ist
ek vo
po vo
z ja
15 73
13 74
o ir
15 62
ic z
56 46
46 26
00 46
28 46
55 37
90 37
23 84
vi er
14 39
12 29
17 29
50 28
26 28
14 40
10 40
14 09
co t
24 02
iÄī a
or il
ri um
ie to
s ni
99 00
12 21
or j
D ro
oj on
¸ è
æ Ń
¥ ç
P H
F M
¦ "
Ä Ĺ
E h
rt temberg
WÃ¼ rttemberg
âĢ¢ -âĢ¢
pat ronoj
Ko lorad
mein schaft
ells chaft
ÑģÐº Ð¾Ðµ
re tpo
du obla
man iulo
tra dukita
su moo
st ancoj
Î½ Î
AE WA
itin ko
ink itinko
R inkitinko
âĢ¦âĢ¦ âĢ¦
Mal dekstre
EÅŃ ropaj
v ikipedio
K vaz
Ġ2 431
Ġ2 439
Re volu
kov ro
kr 
ho fen
J anu
B raz
E ux
Ã³ w
iste ma
lav anta
vis ion
· Ð°
ar cent
for las
kti lo
Pa Ã»
le kul
zi oni
c ss
Ko ment
F Ã©
L Ã©
z 
ila to
ono log
en don
Vi za
k anoj
p hi
Â» ...
ro por
ad ap
ba h
ba y
and aj
ig int
? --
zi te
ni gi
er ter
er ga
on ir
ka tu
17 79
la us
17 62
14 52
96 57
15 31
14 32
so u
al so
ro sp
94 87
13 30
F ol
ri kon
05 50
96 17
97 23
um m
93 05
mi do
mi te
om s
el as
P lo
ma oj
l re
ko ko
h ta
in en
is an
G T
" #
x f
® å
º j
lan guage
G linda
Ð½Ñ ĭÐ¹
Ru dolf
re ligio
in fanoj
sem ajna
Si mpla
fu nda
istr anto
H esio
klo pedio
pul ar
ka vali
nam io
liter atura
si mple
Ġ2 609
kl aso
Ñģ Ð°
cep ti
io logio
ka tol
K amp
´ Ð¾
' ])
or taro
gr und
m ulta
im ume
ri bel
ven ci
tal ismo
ori do
u foj
uman e
b ajn
ist ing
G ian
j ojn
ar enc
ag li
P ion
c aro
ap io
ÅĿ al
ÅĿ ar
bo do
in ej
di man
ko man
A ns
P ec
k ec
eg na
17 68
23 67
la ga
tu p
c tu
ti ku
14 82
64 24
15 63
16 63
48 46
10 54
S per
vi ka
57 04
94 57
00 28
03 36
20 32
00 56
90 87
to ve
ve le
ran di
95 06
96 06
N em
96 24
95 95
93 00
y ne
ur ne
W ie
os mo
ÄĿ ar
ti do
ma k
13 11
ra li
y as
] -
Ï ħ
Ä ±
Y S
O G
å Ĩ
B W
T P
Ħ Î
 ministro
ÑģÐº Ð¸Ð¹
Orig inale
Feli Ã§e
An alog
Mon umento
an gulo
tre jna
Bon ege
Ka vali
for ges
s 
³ å¸Ĥ
ga ÅŃa
ÑĢ ÐµÐ
b aso
Ð¾Ð º
Ļ ÃŃ
f red
be stro
Pr inc
¿ Ð¾
itu anta
pro pri
pan aj
vid is
to doj
Ġ1 011
M Ã©
I mpe
v 
st mor
k ord
A NG
A goj
an za
ar tan
enc iÄĿ
eb ru
b ank
zo fi
D oc
ab lo
in ÅĿ
ge to
ar ono
bl in
de ter
14 72
14 73
ga u
22 76
us aj
16 62
ru b
ru la
20 58
22 84
08 85
17 39
96 86
04 48
pa go
00 33
pa f
95 87
id t
kon f
da ra
00 95
s ad
98 00
in ie
M aÅ
de on
ÅŃ la
k do
ko mo
17 21
S ka
re w
on ko
16 01
å Ĵ
p v
H m
ª t
Ã ĥ
f n
v v
A Q
D K
İ å
é ģ
E j
kon domojn
Ŀ /âĢľ
âĢ Ŀ/âĢľ
us onanoj
sk ultas
ers dorf
za beto
Eli zabeto
Vi laÄĿo
ele ktita
voj aÄĿo
br unaj
ko mpa
po zicio
do ktoro
Om O
j OmO
/ âĢĿ,
in sul
pun kto
dic inaj
re zer
Sub spe
s olu
ann es
Pro pra
ist inoj
rak lo
F rem
in daÄµo
po sto
ograf ie
ven k
it Ã©
B Ã©
Vi eno
Ã¡ nd
mor te
eg ale
am oro
of f
S of
gu ste
aj ho
rb ar
bu ti
de ca
it ua
p ing
u taj
H az
t be
te gi
ur fo
l vo
ec oj
15 74
ma ga
v ov
50 77
ku le
d ru
10 70
53 13
14 53
17 43
17 52
15 52
34 85
15 39
65 55
06 38
t pa
nu j
L ist
98 03
E co
es ki
h ed
96 20
te il
ul is
um pe
00 93
92 98
li de
ni to
mo u
es in
in Ã
X e
C F
h Å
H P
Y E
E Z
Ĥ ¹
Y T
Ö ¸
} ^
Ù Ĩ
Vjet namio
yto go
ku ntek
prezid anteco
imna zio
aÃ ®oj
Anta Ã»e
ofic ialaj
stara j
Be daÃ»
And rÃ©
La mao
Ek zamen
Ġ2 639
ad ratoj
Ã¿ ajne
eo logi
F els
resp onde
fi zik
f olio
M IN
pr inco
ÑĤ Ð¾
zaj no
lin gve
Ba hn
minist rado
Kom pon
ide ano
Tu be
You Tube
ati on
st aÄµ
kt 
or ista
in coj
bo ard
men aÃ
m art
N eni
w ei
k ismo
uk so
ing s
am era
a hi
b ub
it ch
er aro
ent anto
er ge
ci fe
g man
N eg
16 71
45 67
25 66
ent il
16 79
ic ol
54 87
23 54
per b
vi an
55 55
15 29
03 35
45 48
25 40
id iÄ
k ve
co p
va la
ul mo
er et
en ad
G ur
ka pe
or it
h it
le h
ta ka
al ar
Z al
15 01
B aj
K B
c b
H M
Y v
_ .
Ã ĵ
kv adratoj
Wil helm
Tra dukoj
fa cila
aj hoj
aka demio
te kturo
ad 
K nab
Mal same
Ġ2 539
Ġ2 649
Si mple
did atoj
t enca
ser von
el paro
Ð°Ð ¼
Kom unumo
 aj
Li lle
In fan
fal u
af eroj
me ntoj
mi lit
tik 
j ura
mpe to
om eno
us kri
er ber
ti van
kl as
uti la
esper o
ri bi
po loj
anta s
G od
mi ojn
V enc
br un
va por
ba u
ur sa
Ġ 005
re su
im io
eg n
10 82
ru d
96 47
94 37
per oj
98 27
03 55
23 41
07 44
00 87
87 98
m ut
ve z
ol m
O ran
06 50
00 50
ed aj
il lo
N um
un oj
94 19
no de
at re
j at
on na
di ti
al ma
or h
ar ra
). [
I on
¤ ¨
Ø ¨
V P
į æ
M C
ĥ i
Ð ł
½ ľ
O e
: {
ĥ ½
wa ytogo
âĢ¢-âĢ¢ âĢ¢
operati vo
Sam seksem
i fado
E isen
Di rinte
uni versala
W olf
I FA
iadi lo
tema tiko
ferenc on
Ġ2 549
re veno
Sek reta
Kan ada
su baj
il gri
ta kso
ÐµÐ ¹
wo od
Äī erp
g xi
il ly
in stan
Äī mento
sek cioj
Al poj
b ras
Li broj
te con
ab und
mes o
po lis
vor ta
ma tri
V ane
Ã© t
ub ert
ust ra
son an
pi nto
ber p
l end
ti moj
is tika
pe tro
ver so
or gu
bu ado
K ing
l era
te ch
po kaj
Al fa
E sta
am ba
k and
mo du
bo ka
u bl
14 68
13 71
14 71
24 67
ga ci
ran ga
14 75
26 76
62 16
16 64
63 99
16 51
16 70
13 54
53 20
00 85
10 39
93 57
05 38
35 44
94 44
25 32
23 32
pa fi
ia go
00 34
00 88
al pa
93 45
15 89
16 89
15 30
is se
em ko
il me
92 95
93 97
ur z
tr is
l mi
do u
F le
es m
C lo
15 21
ka k
ka e
14 11
V aj
to o
V is
ľ Ī
P Z
G S
P t
º ,
L M
- ;
ı å
Ł ç
N N
âĢ º,
li tove
Fra zioni
O ficiale
j ubile
mor femo
I JK
Tran sporto
Kon takto
min utan
Å£ a
Ek estis
Histo riaj
Br uns
in ingen
Ð» Ñı
T orda
un ktoj
L erno
sta laÄµoj
Mal ferm
ä¸ ĸ
vol uma
d alu
an dalu
ve nton
Ħ ãģ
s kolo
le ben
pro kra
n une
rik oj
ven as
em ber
et end
tr uo
nu tra
mu la
T era
era ta
ti zo
ch um
ni fa
por tu
rg en
ÅŃ ze
gi ka
h eo
R ok
I nc
22 66
sk y
G ent
16 61
vi te
13 42
15 59
16 41
15 41
03 65
93 35
go t
80 23
87 87
17 30
S ki
96 97
ÅŃ da
ul ia
93 20
i ant
ģ ne
16 91
23 92
N ik
T at
nd on
j lo
re al
li re
ti ra
en O
U d
B V
Į å
G x
ľ å
K M
U p
è §
, )
nor malaj
in cipoj
Tra ktato
in icia
u graj
} ^{
pro bable
Pro gramo
sk ulti
Ġ2 629
B enz
Po staj
) âĢĿ,
lip pe
Phi lippe
sen plu
Inter esa
zi tiva
af eron
Ħ ski
rab io
ne jon
- âĢ¦
kor do
ta blo
ver bon
Ã Ńr
Mo ment
ard ante
ust ri
hu is
par toj
par ti
B ob
la kto
kon for
s ana
tik isto
f taj
' ...
st ap
P int
f fe
zi ra
) Â»
la men
E rn
h ac
h ns
pi ra
to pi
ost on
16 69
V eg
li mp
16 75
ov er
15 81
16 81
03 46
25 58
53 10
93 37
per on
u vi
16 59
05 28
06 28
28 90
65 35
96 34
04 88
I nk
sp ri
se o
ki va
ek ran
98 06
92 96
et le
h ad
94 05
le st
A lo
10 21
ka o
an am
as in
O ro
Z on
¼ ģ
A Z
ļ å
¶ å
W I
e S
¬ å
int ifado
Sta tuso
ra jton
Efek tivigo
ä¸Ń åĽ½
ka pitano
ele ktra
Kr istana
ed zino
Sem inario
Go ogle
ur beto
m Ã¡r
por titaj
vali ro
af idoj
K olon
Ġ2 489
Ver Ã¿
Mal fru
ba bil
ni kado
Ð¾ ÑĤ
sa ksa
½ ä¸
cienc 
Ñģ Ðµ
Me dic
fek ta
bo rado
Mal mul
Z eÅŃ
ure co
rÃ ¶
ph y
C lub
rak tik
K ler
A Ä¥
me tri
aÄĿ on
G ju
ro pan
st elo
en ask
on for
N ana
in uk
ani ma
di zo
H ub
on anta
az z
G az
L oc
str en
H ara
p ÅĿ
re int
be z
ce lo
ak c
vo Äī
a im
15 71
25 67
B og
ma tu
ov in
17 64
ik si
si la
55 47
24 58
24 54
12 39
93 55
00 38
96 36
10 31
00 44
kon fi
O nk
12 80
w id
25 02
98 04
ur da
w et
N et
99 93
er ek
ci ti
l na
99 13
el c
s re
ia ta
h te
en y
` `
ç İ
ĸ å
Ł o
½ ;
[ "
H z
´ å
Y V
x l
Ñ İ
¨ ç
kun venoj
dimen siaj
orig inale
Kri meo
A RO
ÄĿ ermana
¿ ÑĢ
German ujo
kolo gi
kon cep
ar boj
ÄĪ iujn
ia 
w ys
ve bla
Ã¶ s
k Ã¼
kra tis
cent aj
era Ã»
ind ro
sk alo
b Ã©
m ask
W ord
end ojn
end io
don oj
ra don
li goj
sp ort
ern anto
T eri
to moj
e tika
tro po
ho mo
zo ra
z anta
h est
aro la
em and
ra sa
m be
O ce
lan c
ej ma
rn st
on ec
15 69
o eg
56 66
ma toj
sk lu
15 82
17 61
12 62
15 83
ru da
98 47
97 46
15 43
26 84
12 42
35 50
97 33
13 80
14 89
ol ia
R em
em es
00 90
et k
15 91
w ie
z os
99 05
as pe
ek no
B om
na st
am el
di te
es w
ka te
ri q
h la
Į e
Ĩ å
Į æ
R y
K h
ģ ¯
H S
w p
â Ħ
admin istranto
Mor gaÃ»
por tugala
Ka tedralo
Dom inik
su fiÄīe
por dego
u dentoj
st udentoj
īå ³
dimen sian
En ciklo
Gra matiko
A eth
ele ktr
ï¬ģ ne
And reo
ÅĤ aw
Tra duki
e bron
B lua
ÅĿ evi
lo sil
ba zaj
n ell
bre to
ekti vo
ta gaj
pi talo
ge bla
f lav
ener alo
Sur pri
p ene
rop anoj
t uloj
b uloj
mp laj
Mal ju
th en
un ista
ard s
st eno
J ust
la cia
if er
if on
m ismo
g ismo
ver no
le ton
li Äīo
ho fa
je v
hi me
erm on
p anta
rk est
w iel
as kaj
iv an
and ar
du kon
ud en
ac u
h ec
Äīe v
26 67
20 74
35 77
14 78
C ic
93 47
47 47
96 46
20 54
vi Å
08 38
44 36
12 31
90 44
00 48
90 88
02 88
14 80
pa to
lu na
ist u
98 08
A ki
ng o
e ul
T et
F ur
T it
in it
re it
mo t
as io
aj p
G in
ro ro
is n
$ .
Ñ ĸ
é ¤
ï¿ ½;
komu nikado
âĢ¢-âĢ¢ âĢ¢-âĢ¢
toman iulo
mi tomaniulo
Ed ward
gen eralo
su praj
ä¸ īå
infor mkesto
maten e
mal antaÅŃ
Al veninte
in fano
et unio
Sov etunio
in rich
AÅŃ skultu
Ġ2 589
tran ge
Ch rist
zi cion
I MA
p alest
de vas
p tita
pat roj
Äī use
ÅŃro pe
vis tiko
Ling vistiko
' ',
uc k
int erv
ele kt
io daÄµ
m 
Pro ven
pu raj
or ejo
ri tika
ti ute
p ajn
N ata
ata s
bu ra
tik ul
C ont
E mb
mu z
iÄ Ŀa
op aj
t ha
um ojn
lo kaj
ze on
x and
G and
f eran
uj oj
bo c
Äī ita
or gi
ej r
f eo
f ok
Äµ aj
C ost
16 68
a Äīe
12 74
mp or
ga te
di ga
ra ga
00 66
20 61
12 64
ru lo
st ic
52 10
52 12
06 85
13 39
27 50
34 38
44 44
rt s
pr on
so p
16 80
co v
26 02
k ran
b ed
00 91
24 92
os u
' âĢĿ
ek r
B it
lo a
d lo
ra Äī
re ko
li ra
Y C
Ã ľ
k Ä
æ ¼
ç Ł
M X
ģ l
K C
Z I
h j
ľ -
Y R
. >
Christo phe
So vaÄĿa
Li tova
ko sma
Int rigo
stat istiko
Ma gne
åı ¥
O tto
para toj
reda kto
ont rilo
du ktoj
ÑĤ ÑĢ
vig a
sb urg
ver kita
spe caj
M iloj
ek tojn
gor y
Ð½ Ð¾Ð
la tajn
na turo
kor esp
mi kro
R Ã¼
mon eroj
le ntu
rÃ Ń
d ling
mp lek
Ã» lo
J ane
pa gan
tal ia
ig 
âĢľ .
ti nto
te au
tro lo
er ajn
uti lo
en dis
iko l
n ina
ran Äīo
re taj
zo ro
pu ka
n ojn
ch el
... ),
T est
g isto
P av
R av
ab le
du ku
I sa
zi li
n fo
ec ar
J im
17 69
ir io
R og
15 75
04 77
13 61
13 64
10 51
12 52
al vi
ol vi
vi le
13 31
94 35
56 48
08 48
97 34
88 88
88 26
ci pa
87 95
14 60
13 60
05 02
es se
se p
ar kon
an et
ant er
25 92
er tr
C os
s os
ti pe
N it
na g
lo di
m mo
an li
as g
Z ar
io b
er j
è ¦
H H
V L
Ĩ è
Ĵ Į
S W
c j
Z d
I f
¨ æ
¥ r
µ n
ri latajn
Me iningen
Ku riero
Sch umann
c ulture
Mal hela
po dka
tra dukoj
Ko lorado
ÐĶ Ð¾Ð½
ri ght
op tions
resp ondis
ab itato
å® ī
di versa
Ma tema
komu ni
kle a
komun umoj
amenho fa
li igita
G EA
mal jun
Ġ 048
Ãĩ iun
ire jo
W ien
vor toj
ÄĿ uloj
F laÅŃ
O rto
tr oni
te ment
es sen
Ka raj
T raj
Ã© g
fer ma
v eni
il don
la goj
b are
H ep
um ere
ku za
li ero
u ani
eb er
enc u
br y
to ÅĿ
Sa ba
uj ar
an ita
kon su
on vo
F ac
G im
ks en
eg aj
12 68
13 72
ga to
h ir
13 75
ov an
16 78
A ku
16 82
14 70
15 70
25 54
53 56
52 86
16 52
vi ti
23 42
14 59
94 36
90 36
14 31
93 34
16 09
ko va
kon te
ul li
et ta
es iu
ne d
ik l
ik ci
en ie
ti mi
r di
es er
G li
x er
) '
F T
Ĥ å
é ĺ
O Å
á ¼
k w
S r
Ä ĵ
fi liigita
ä¸īå ³¡
Ver Ã¿ajne
åĩ ºç§Ł
Be letra
è½ ®
¸ è½®
æ¸ ¸è½®
Ka pitano
Filo zofio
---------------- ----------------
N okto
daÃ» rinde
ä» ĸ
mon atan
Kon struado
todo ks
erik oj
Ġ2 409
Ð½ Ð°Ñ
don imo
Bo Ren
La BoRen
kov ri
ï» ¿
ka teg
B arc
Ð½ Ð½
re cen
F rato
Ã¶ ni
ma tur
Dis vol
pon ita
ajx on
aÄµ aj
] ],
F eti
L umo
me doj
sk Ã©
k Ã©
z ber
D anc
ob os
end an
mon y
ial ist
in ver
ti Äīo
fe tiÄīo
tor ino
la mb
mb ran
te nta
to ron
me zo
or anta
® ojn
ch ar
enc es
O rk
H oc
W ag
en isto
En gl
ze lo
le ge
u ge
on aÅŃ
mi gra
y ce
in ec
pl er
12 69
15 68
12 71
ir ma
tu a
ra tu
37 77
li us
ru ÄĿ
94 46
00 58
14 49
17 41
93 36
26 32
96 88
12 60
15 09
s co
ra co
ig ma
ig li
ng le
tr um
um ar
ant s
p ant
ur me
os f
aj lo
ma li
´ °
ì Ŀ
C U
³ d
} \
Ä Ń
æ ²
ģ ¨
¦ Ĥ
x c
Â ¶
Ĺ æ
R B
ĥ Ī
µ ·
¡ m
å ¦
é Ĺ
Y O
tste il
or tsteil
F laÅŃro
O maÄĿe
es pÃ©
Kro atio
kun sido
P ubliki
Mor gaÅŃ
le giloj
ne stiÄĿo
vor taroj
 
æľ ¬
do ktr
sen dep
kun sid
Ã¨ s
ÐµÐ ¼
Est ima
mal ferm
mar kita
stre ma
L EA
fil oj
Ġ2 303
Ã¼ hr
re joj
ko her
i rot
duk isto
ask iÄĿo
ÄĿ lando
Mi rak
gran d
R oz
ane do
ko ment
ten as
ten ber
st ora
J Ã¡
eni ero
Du foj
res ki
A sti
G au
la ine
Ġ 004
ne pre
ka ver
er ton
p ton
ki zo
bl anta
ib ri
por toj
f aÅŃ
T aÅŃ
bo la
14 69
pe ter
ar ter
ter on
14 74
90 77
us ic
10 62
14 83
12 63
14 51
46 86
13 53
10 49
03 44
on so
de ut
04 02
ol ta
ro da
mi da
pe da
da c
da h
ad or
22 92
os on
pe ti
z om
ni l
l ni
di j
y es
14 21
re as
al w
ia p
is in
Ï Į
L l
M j
V B
z c
Ê °
å ī
B y
Ç Ķ
ĩ å
R V
I p
Rig ardante
Ka ÅŃze
sge meinschaft
Äī useco
Masa Äīuseco
kul tinda
Uni versal
Re ligio
Pro vence
Mar ianoj
fam ilia
L KK
ent repr
pital ismo
men aÃ»
Al menaÃ»
uns viko
Ñı Ð·
en kir
la peris
ri lato
lozo fio
ko vri
u strio
Ind ustrio
nomb raj
his panio
ÅĿ abl
viz ore
tran ga
Ð°Ð ´
me mbr
p asi
for mita
li onoj
s bur
german a
ur bon
al las
ko lek
ur uloj
ont uloj
di 
ment ado
o ment
rat ino
for umo
k ard
ila toj
log ismo
G ala
F ren
st ari
g end
M ort
uti ko
h ismo
gu li
Po ez
W eb
op in
ip at
ed zo
ke b
ag u
est an
e por
ar anto
or iaj
ik sa
le gra
er be
or ce
ak ti
bl is
li man
l man
A man
eg y
b ter
10 73
mp oj
06 66
ku li
us se
93 46
98 46
05 58
23 43
10 42
15 42
10 59
16 29
86 98
87 34
95 34
a pr
ko pa
iÄī as
se u
u va
po ro
il ar
f ant
12 91
14 91
ur st
ik k
el er
M iÄ
ka h
13 01
14 01
d no
la e
c ta
oj i
¤ e
Y I
Z O
N V
- ?
& #
D M
q d
Ð ĵ
Ĭ å
He inrich
bol ÅĿevi
Do boka
Distri buado
Stra tegia
hi pote
åĮ º
mal neta
fam ilioj
ele ktro
Mal longa
åĽ½ ä¸
Åľ anh
âĨ Ĵ
el stara
Reg istaro
Î ¸ia
andalu Î¸ia
zur ia
æĪ ĳ
Ġ2 529
udh ano
fru e
ub erni
I RE
Ðµ ÑĤ
fl oroj
ä¸ į
Ð» Ð¸
Ð¸ Ð»
liter e
kal enda
no libr
H elp
ãģ «
Ġ 044
f aÅĿ
De vas
spe cioj
C arl
pre ska
-- ---
kam poj
S tato
âĢĻ .
anta ÄĿoj
za ÄĿoj
. ï¼
ru soj
atu so
por tre
aÅŃ stra
ti mes
ri kan
A tin
il ust
E min
en umi
ri foj
kri m
anc aj
mal for
ko don
d rom
en uo
E ug
s ajn
H ere
In ver
ron iko
ca ta
q ua
fr en
a era
ik ojn
enc is
or est
st ion
H ib
sta ti
D ab
S anto
ÅĿ k
aÅŃ to
sa b
v ono
A rd
pi ano
be am
re fo
vo la
al man
ec t
Äµ i
to rm
13 69
or eg
22 67
16 74
34 66
sk an
02 77
13 82
10 81
14 81
aj us
un us
14 62
13 51
16 53
P ÄĪ
14 43
13 52
56 84
mo vi
ko vi
45 85
28 28
94 28
08 28
13 41
98 33
pr is
20 80
23 40
12 89
u id
kon g
em en
ÄĿ em
f et
ad j
al tr
B ie
H os
F os
A Äī
ko z
li x
j ra
ľ G
! ;
t Ê
Î ³
ģ ĵ
ç ¥
J U
y y
B D
> ,
El nestiÄĿo
min imume
so cietoj
atm Ã¡r
Sz atmÃ¡r
ÄĿeni ero
ÄĿ isda
Dok trino
pro tekto
gh aveno
ÅĽ ci
fak delegito
AÅŃ gusto
Ch Ã¢
esper 
Ko lekti
ÃŁ e
I ON
Ġ2 309
Ġ2 389
gra mojn
al teco
li ardo
ima ta
land anoj
kad re
tar isto
iogra fi
et erna
te sto
dek so
mo laj
ili ono
H ind
kul p
ment an
po ten
ar ulo
Ã© on
ab ila
ue la
tem aj
ers ch
p hu
ang x
ari oj
end anta
b end
de mon
do mon
m ine
H ei
z za
F ina
as ante
ni nte
an ism
era to
ar anta
A ha
er ch
an ch
enc h
li tis
tis ma
est re
ik cio
A ÅĿ
io ze
pi ono
l lan
ej no
z ec
pi nt
te ks
10 69
ur ter
10 72
en ga
e ir
13 63
20 63
15 51
88 46
13 43
04 85
14 42
28 38
36 28
20 41
95 44
86 97
96 48
er fi
v go
go la
87 33
or pa
d ut
20 60
13 89
23 30
ol es
E ki
96 50
al em
em er
ie la
ci li
ma p
b ti
b am
w as
¥ in
en ra
R is
I an
Y u
T w
æ ķ
Ł ³
³ z
T L
in stancoj
å± ±
Tek nologio
wic z
su dokcidente
lo silo
G ott
tut monda
ci vili
di filo
ka rakteri
pa ÄĿojn
vÃ¡ r
¯ ä»
æĪ Ĳ
Pe tron
Ti tolo
evi ka
I deo
O NT
so vet
mon tara
ten berg
v antaj
ro lata
E lekto
sk rip
stru aÄµoj
ĭ ãģ
K aÅĿ
Du foje
stan ca
les ko
pu tiko
Kom putiko
lÃ ¨
lu vaj
ri buo
on ore
Ce dek
ele k
pi oni
ro ss
ch ten
B alo
li ard
P ura
ot 
F ori
Q ue
sc ia
ob in
ug en
tra u
c ere
up ojn
mb ur
P ip
hi p
hi er
J az
ion i
s isto
on iaj
lu sa
men d
B ak
en ac
s man
L ot
10 74
me toj
ar kt
03 77
15 78
10 78
12 82
64 33
10 63
51 10
13 59
36 38
38 38
86 36
04 32
88 56
lu mo
s lu
12 40
20 40
Äī ist
ti co
co b
el ki
F em
il y
98 90
un z
un or
F ik
P el
me st
t me
lo o
13 21
z ka
ti oj
ro h
T is
V y
Å ļ
â ĺ
¤ Ĳ
a Ë
m Å
x m
: ,
O I
Y N
bal otantoj
esta blanta
koher aj
ok koheraj
eg diversa
mun ecar
al munecar
komp utilo
u anima
un uanima
Ar kiva
En glish
E AÅ¬
Ġ" -",
hun garaj
rom harmon
romharmon y
ef romharmony
peac efromharmony
S utro
af idojn
so vaÄĿa
fe liÄīe
Par lamento
įå º
Ja kob
di mir
de mokratio
........ ........
N estoj
sci encaj
do wn
bs liga
socia tion
J ulio
Mo menton
tra dicie
è¯ ´
nst adt
ldi r
ci ldir
produ kt
ek spo
Ġ1 021
Ġ2 021
Ġ2 289
ka lip
N RO
F esto
/ âĢĿ.
con tent
Ð¸ ÑĤ
komp lika
vo Äīa
ri zaj
li gas
Ð¸ Ðº
vi zio
Äľ eraj
ÑĢ Ð¾
Ð¾Ð ³
i foje
ux ro
Sub stan
pu kaÄµo
ge pat
b iografio
mor tig
uri loj
era ÄĿe
b rig
± Ð¾
Pro pon
T his
gran di
pen di
ran den
Ar Ä¥
G las
eg ee
we egee
f lek
m uloj
ini ti
za ÄĿo
kon ven
Pr Ã©
te ori
y ai
s ang
eri f
ter ial
pre mi
j ana
int ajn
kt ero
ho lo
u ca
La ste
mb io
ll er
ist anoj
di anoj
id era
hi re
pu ro
Äµ az
Z ag
ag as
rg u
gra d
u af
af e
R ac
ar im
h ost
13 73
05 67
pa ga
ir en
en og
ÅŃ toj
tu na
15 79
A us
14 61
12 83
as si
23 51
12 51
88 47
54 35
15 49
34 84
20 42
23 59
12 59
35 28
10 41
12 41
88 36
86 44
03 48
95 48
lu go
n sp
ut z
M ist
ar co
lo kon
ed ra
ed en
ed in
a un
A ÄĿ
ri pe
A de
d de
lo st
ka c
r Äī
re am
j la
is or
H aj
į è
Ä ¾
Y F
Ù ħ
o q
© å
G V
X V
P B
Si lentu
ÅĿevi ka
Camp huis
solu ta
Po sttagmeze
Go tao
Mal juna
Bon venon
ab onantoj
ue poke
de fend
Eve ntuale
onim io
ha Ã«
Ð¾ ÑģÑĤ
de utsch
pro fund
ku tima
ÃŁ en
mal 
An arki
ÑĮ Ð¼
alt ung
w altung
l Äīa
tori tato
ÑĢ Ñģ
Åľ tata
uma do
ol ly
u enb
g istri
vad oj
ad rato
h inda
kla ku
al erio
ra ÄĿe
B Ã¶
er ao
fon io
ve ola
aÅ Ŀt
ebl aj
ele kta
tiv ismo
ka elo
Mi kaelo
it 
mb ert
ar Ã¡
Sa ale
en ejo
ent rum
ui to
m ers
y ang
re ali
end er
" Âł
ÄĿ ajn
ar dis
li gu
ar ante
ul ton
bu st
is tik
le nta
per eb
in ian
B od
I ch
ch l
ch h
al oc
k sta
ab io
u gl
sk and
aÅŃ t
sa ko
pa gi
in ce
lu jo
per man
eo do
in ok
u Äµ
en ir
ov u
ent en
u ent
90 76
32 76
20 79
ku ta
10 64
26 54
12 53
20 52
ia vi
33 85
55 34
07 28
98 88
F id
24 30
30 92
kon ta
98 50
h da
nt um
a ik
ci to
nt el
en mo
le te
25 01
re an
Ŀ ti
h li
as no
ta a
â Ķ
ī Ī
C z
¡ o
ç ¤
{ {
/ (
× Ķ
× Ĳ
Ver waltung
Ne matur
Stan islav
Mu reÅŁ
spe cifa
Karakt eriza
Lud wig
len inismo
fun kcia
sk riba
vo falo
ÄĪ iutage
Mal multaj
u enburg
Orig inala
 isto
R ekon
pa rale
Ãº j
ll Åĳ
le kulo
ro lado
kri pto
c prezidanto
vi cprezidanto
pre dik
Pet erbur
S Äĥ
id eru
ubli kaj
Ã¤ t
A vent
st udo
plo ma
to kolo
Ã³ j
J Ã³
en eral
le con
in cide
ti gis
cent re
ru san
H erb
re sto
as ser
v uloj
kti vo
mi tiv
s ind
et ten
un ura
on dr
T rad
ier on
ta min
uti l
tr up
ko ho
re ca
mp ani
ul tan
k tor
ter anoj
po zo
f ojn
ur ke
w ab
ter ap
e ara
sa g
is sa
gra da
men oj
ud or
o ce
l ja
m man
h rm
an Äīe
ot ter
de ga
36 66
96 66
25 75
or sk
14 79
13 81
et us
20 83
14 63
55 46
20 53
10 43
35 85
33 28
86 35
30 32
h ut
ut is
10 60
10 89
13 09
va h
P ed
ng u
to da
ik ro
V ie
¡ ek
om or
is ci
O le
h ti
¡ no
Z er
N on
v b
é £
Ļ å
Ł a
J M
K s
ë ı
ĭ æ
ekster teranoj
waltung sgemeinschaft
âĢ ľ-
ha Ã«l
Rap haÃ«l
sol datoj
En havas
é¦ Ĩ
nor vega
re lative
de termin
ev alojn
........ ....
on line
V eturi
A jna
fen estro
Äī efo
dis vast
fer vojo
Di fino
zet on
Ir landa
Ð´ Ð°
ament aj
an arki
toli koj
ele 
per aturo
ti utempe
Ġ* ********
ÑĤ Ðµ
aÅ Ŀin
kom preneble
Re dak
M AN
libr on
Ko lekt
s xi
ial isma
b arb
sek saj
ver saj
rita ton
gita jn
ka ux
il les
te les
esper 
te stro
S Ã¼
mar bor
P rak
rib oj
ek und
K urs
kci uloj
Ä¥ an
as ili
ra lia
am pan
ng elo
ven ante
ven u
la doj
d ena
eni er
C ala
T ang
li lon
ti ea
an ajn
D ina
la ho
bu ch
ua ci
u iÄĿ
er ing
Z eb
ian na
ek ip
pe zo
ch il
ch an
str ino
H ag
ag n
kr on
ib el
ib b
ino lo
ab il
Ko ÅĿ
ÅĿ ov
% .[
and el
aÅŃ u
im po
eg h
25 71
20 73
33 66
12 75
00 77
+ ",
12 78
06 76
13 79
20 82
12 61
13 83
14 64
23 63
E ic
10 53
12 43
20 43
10 52
13 49
ÅŃ vi
20 29
48 28
23 31
20 31
87 44
07 32
t ond
23 80
ma va
ran i
ni ki
li kon
er po
as ad
ne b
13 91
C ur
ik or
ek an
P it
le do
P es
lo ta
20 21
f ka
Äī am
ra re
/ ..
y ri
no t
t la
te or
as x
a Ç
D H
ģ ª
o S
g c
Z l
P K
ľ [
N B
m x
½ å
ı ;
Ù Ī
ler nolibr
Hi eraÃ»
pl umbo
am erikaj
Ci vito
po emoj
Ä´ 
le tero
metr ia
ci taÄµo
san skri
Î± Ï
ti ujn
Au gust
en burgo
Pa laco
ra chen
stru mado
P RO
io daÄµoj
ãĤ Ĭ
C eloj
ÑĤ Ð¾Ð
ãĥ Ī
Ð° Ð²
T omi
cienc aj
en nik
ãģ ¨
p instru
mal proksi
proksi me
ÄĿ uste
ï¼ Į
di ras
Es enco
G Ã¼
Ŀ âĢ¦
vis io
pren oj
lig ent
ile co
P rav
N atu
! Â«
la voj
or Ä¥
Ä¥ a
lek se
kt uloj
in 
ers one
ru ÄĿo
vid u
li doj
ti doj
me tal
son oj
par anoj
est ilo
ÄĿ eto
end en
s don
le goj
m are
ul are
t bu
B ez
ci pro
ÄĿ ian
hi le
ar tis
T raf
Äī ion
er ara
A ba
s and
ran ge
ka zi
zi en
ak ci
po lan
ok an
20 71
S ter
00 72
og h
20 75
ov iÄ
98 77
20 78
34 76
22 82
10 61
13 62
10 83
23 83
si v
ic on
ic s
12 49
27 85
20 59
16 31
00 32
56 32
r so
ve ti
24 09
na va
ig os
ul po
96 22
ul er
10 91
ur lo
h me
¦ ),
A ko
io ra
to z
ro ra
an b
> -
é Ŀ
m É
i M
Q i
t x
V T
W S
me todoj
F aÅŃno
Ã¼ll Åĳ
ÄĪ iuokaze
Na pole
komp lemento
ple jofte
ak tivado
re guloj
io mete
kna bino
ciklo pedio
mater ialo
cident aj
pa ÄĿon
erik an
ru ÄĿaj
O ndo
kan did
emi z
re gado
ntra Äµo
am aso
no vel
ni tz
tiÄĿ ojn
la ÄĿoj
Ã§ am
lav io
f Ã¼
tis tiko
p rav
± Ð°
W ald
bon vol
b rec
Kom pen
ka sto
Ä¥ ni
t ner
ek onomio
len s
ar dek
p uloj
am uloj
po zu
m Ã©
p Ã¡
h ren
dis kri
b ang
van io
don ado
mon ta
p ho
f uro
ste jo
La mb
bi li
bi te
ch re
d enc
f anto
K lin
ro fe
Äµ aÅŃ
v eran
ce ano
am bo
men e
ud on
ak aj
ak ar
Sa vo
en jo
ar ec
rm an
ost i
H eg
10 71
ter io
sp ir
27 66
24 78
10 79
us al
20 64
A si
si ve
20 51
an ic
ic al
45 58
90 85
02 85
23 39
96 38
10 29
00 41
06 32
fi an
ar go
23 09
06 02
ig ne
L em
ri et
H ad
24 91
mi nt
or ci
re lo
ko ro
a ia
aj Ä
A y
: -
¹ å
s É
¥ è
F K
Ģ ¯
A H
ë ĭ
k Ã¼llÅĳ
KÃ¼ kÃ¼llÅĳ
Ġ" +",
Don nell
W eiÃŁ
af rikaj
Org anizaÄµo
f ederacia
Re dakcio
As socia
f leks
no libroj
ler nolibroj
mu razi
Ġ2 411
B Äĥ
esper antaj
ab rika
³ ãĥ
be stoj
G aja
k etoj
tiÄĿ on
jan ov
komun isma
Ġ 033
can vas
f canvas
ÅĿ asa
anka ux
kla mo
st igi
ru ÄĿe
o Ã§
Ġ- âĢ¦
urg on
lo ck
pr uc
pro mes
ide on
G ideon
el ler
ar ÄĿa
S ens
ga ele
ri 
. **
pan j
lon gan
me kan
Ã© ron
pl 
s fer
el eno
aÃ ®
G ren
et ers
hu nd
emp aj
anc el
z par
ilo s
ob el
in flu
c end
for ti
Re for
al ep
K ver
on ante
is ton
el uro
kon ste
] ].
pro te
d roj
pu ta
E ge
fe ta
s sa
ak v
20 69
w eg
12 72
07 66
23 75
97 76
24 79
25 70
23 49
24 49
27 84
04 84
32 84
per ia
03 38
jn oj
lu lo
25 60
ol c
as se
g da
da p
v da
h ul
H et
et in
P ad
an un
un ka
do to
I le
ka g
k ka
P ia
N is
ľ ī
T D
V K
¡ p
" *
ĺ .
? ]
V d
I Y
: (
Kin ÅĿasa
âĢ ĿâĢ¦
do lÄīa
Bol yai
Po irot
Fin ï¬ģne
pil grim
in stanco
Nic olas
ÄĪ evalo
al eph
Ra kontoj
mon teto
ar tisto
komp anado
ÅĿ ance
kon ataj
fu ndam
todo ksa
insu lo
Mon tru
v ikipedi
Ġ1 091
lip so
me tran
vi von
RE K
Na ciaj
ļ Ð°Ð
k esto
pro gres
sig nal
pl anon
li kva
qu ez
Åľ tato
b iogra
H amp
Ã¶ l
os lav
ekto ro
z iÄĿo
kon kre
une co
ora Äµoj
fu jo
pro gre
v 
la tiv
L ind
ci doj
ko doj
ka tal
am 
b ori
y Ã¡
ber ia
are to
ast ig
ik ajn
ina ta
b uro
hi te
zo li
is pu
pl ojn
enc ojn
om ojn
ad ojn
in ch
ion a
en ino
f av
rg y
ÅĿ os
im ba
» du
lo sa
Ti be
bo ur
bo d
pl y
ks ig
97 66
37 66
tu b
li kt
35 76
12 81
23 61
00 62
20 70
24 43
32 85
20 39
45 32
34 32
fi on
ta fi
un go
g ut
as ist
n se
il ki
a et
lo ad
h ni
na k
is el
el ma
r ri
Ļ ).
C ra
Ł İ
Î ¬
E X
è µ
å ĳ
Y G
Mar ianna
fun kciuloj
kv adrato
Top onimio
mi liardo
Apar tenas
komp utila
pre dikanto
Bru selo
cer emonio
pos edantoj
Kr istnas
hann es
repr eno
tra jno
pula cio
H och
nor male
le vido
par donu
ple zur
kces ora
A kces
pri labo
T 
man uel
lef ono
P ied
Ã® o
En iru
ÐµÐ ¿
rt uala
ÅŁ u
R hin
Ho hen
Ġ 028
ãģ Ļ
W ES
ser boj
am bra
M ÃŃ
da ÅŃro
bor da
la ire
le gen
ri ck
k rome
las ika
eli g
ens ch
ind en
L Ã¡
Ã¡ no
i liaj
ia ble
ang en
gar di
m ari
erman o
to don
ci ona
ar ana
A ver
ra za
t ho
bu la
I nte
tan a
E ll
d ron
ian g
te zo
erm in
at ojn
ter ojn
aj str
va ke
eg est
ara b
aÅŃ re
aÅŃ ro
r sa
ru jo
man s
pi aj
p pl
ks id
24 72
87 77
04 76
20 81
34 61
00 63
00 54
in vi
25 39
03 28
24 31
gr oj
ni gr
25 80
se to
al se
p po
da v
k ne
R ie
mi c
as ek
R it
ÅŃ c
I na
lo mo
io le
es ka
ka f
ka v
al Äī
en Äī
en al
¬ ),
âĤ ¬),
la ko
x to
Y L
â ĸ
; (
Ń è
K G
L H
¯ ,
Ê Ĭ
Y Y
Reg estilo
per iodaÄµoj
refo x
Fi refox
Gian nina
Ges ellschaft
eti kedo
gres illon
Ø§ ÙĦ
¯ ä»¥
åı ¯ä»¥
ÄĿ isdatigo
esper antio
Äµ fonto
nova Äµfonto
nnnn nn
Mad rido
ran gota
bi rth
Min acoj
on tulo
vol ontulo
Î¹ Î
aÅŃ tomo
a ktuale
Re memor
il kija
Ð¾Ð» ÑĮ
w itz
çļĦ æ
Tran kvi
Kur ioz
pa rola
ho telo
TI ON
Ð³ Ð°
âĤ ¬
Ġ( âĤ
h ajo
Ġ- ->
mbro ÅĿ
D inast
ara baj
B ET
sil on
Ti paj
ar bar
D EL
J ork
ãģ Ł
Unu flan
hr er
rig ad
p Ã¼
of eroj
Mi lit
bor do
ajx oj
ck en
stru kt
voj oj
ar maj
u ÄĿo
l ori
B art
ui la
ang z
K res
se par
M eks
lon i
eri va
lan tika
dis la
ere jo
ka za
bi ero
z ho
id ua
ig uro
bi la
D ian
ro loj
pu lo
S ha
la ch
r enc
/ ...
M est
aro v
sta ci
sta ro
o ara
li ÅĿ
ol and
D zi
lan oj
vo b
k ej
v man
de ks
h ter
tu ko
kon tu
ur si
96 85
87 85
23 29
65 28
pr oj
24 40
ki m
ed r
c ad
23 91
ur ko
pe j
v le
nd an
ti er
no st
an er
P is
Ù Ĭ
+ -
½ :
ï¿ ½:
Ï ĩ
a R
m w
° ì
ł ë
R H
× ª
z f
Te levido
La uenburg
Sant iago
ntemp aj
ÅĿ oseo
im periestro
LI GO
Po litikaj
ste lacio
Mu zika
iran te
P unkto
w ett
istr oj
Ko loz
Re veno
Man uel
ÄĪ Cu
Ð½ ÐµÐ
st eloj
ag adon
O TE
¾ ãģ
ef ekti
erc us
bri d
F unk
hel y
j Ã¶
lu gh
u rie
pa con
li gis
Kon kur
dent en
raÅŃ b
D anio
it ten
onom i
kam i
A ust
rad oj
aj nas
s son
oj kri
ber ta
is oro
pre par
ver eto
V ort
D ana
tika Äµ
ks ismo
ri gu
K orn
on ez
ez er
un eb
er eb
B ron
al taj
hi en
od on
ha i
tis ch
t raf
on ion
B aro
sa ti
ita s
ud s
ud u
ci gi
A lan
o Äµ
23 69
10 68
f ot
A ir
04 66
L ov
25 78
33 76
25 79
at ru
86 47
00 43
00 52
24 52
36 84
97 84
86 38
88 48
lu da
F ut
al co
Z em
P ant
t ne
00 92
an os
n ci
ar ni
v ni
z na
mo la
C le
Äī d
R al
la a
io la
Z en
O nt
ļ è
D J
¼ ı
B J
W O
¤ i
æ ĥ
= {
c v
Å Ī
Sta tistiko
re gistri
Vla dimir
po pulara
ko vrita
rth day
uk raina
N ature
Nas sau
Mal multe
æ± Ł
ma struma
ych us
Mal feli
faci le
ti enne
Ãī tienne
indu stria
war z
zo fia
Est raro
tigi taj
hor loÄĿ
su bj
le ksa
Ã¤ r
ta ker
Ek stre
e vent
ri poz
s acio
¨ ãģ
ãģ §
for tikaÄµo
st igo
 taj
b riko
ÅĿ iro
Ti poj
Ã¶ ll
C eter
T rib
und oj
w erb
L anda
kci ig
ra koj
lek tiv
kti ve
ont rol
De ven
z ura
st 
k eno
P Ã¡
ue co
il ber
V ari
ari ka
M oti
m ort
a uto
u iz
B iz
a ute
gi ajn
el ajn
o za
F ero
te nte
tor mo
et he
h era
ks ado
Li ch
oc c
ri ke
V ag
el ino
av er
lo ba
en ba
du jo
u int
gi ko
ak ta
n ja
b ok
23 68
24 71
og el
og io
02 76
25 81
us ed
at us
64 90
35 84
24 59
96 32
90 32
pa te
ar ist
23 60
89 22
24 89
c co
ig l
kon a
96 92
ta da
an um
am pe
ek oj
or le
z no
U g
y z
Ĥ æ
I x
Z s
£ ģ
N Y
Qu ercus
Ba ilos
of fcanvas
vol ontuloj
mu zeon
mes aÄĿon
Ĥ ï¼ī
ãĢ Ĥï¼ī
ļ çī©
åį ļçī©
ntek ste
lu xury
wys luxury
bri dge
nnnn nnnn
Ã© ration
al pha
Ka ÅŃzo
ni tologio
litik an
Îµ Ï
Nec esis
st 
A ziaj
Ð¾Ð² ÑģÐº
flu entin
x press
ris tian
Ñĥ Ð±
en stein
åı £
G abri
tro vita
ult nomb
I rano
mal supra
J apan
Ġ--- --------
bon volu
vide bla
pr iskri
ta ktoj
g antaj
Ð² Ðµ
De zer
laÅŃ liter
de zaj
aniz ado
esper eble
F land
ÄĿ enta
dic ina
For tikaÄµo
Å¸ ajne
par tn
z akte
Al ÃŃ
gin io
in aÄµo
g rot
stra lia
Pri pen
C olo
d ens
em uloj
tal 
am aÄĿ
aÅŃ lio
ind io
K ard
l ert
kam p
bi eno
art n
isku te
gar ia
ba sti
van ni
Gio vanni
pre ta
ek tro
ÅĿ ata
ld en
ek tan
p ont
pro p
no mu
ran taj
H ip
erm ino
F anta
c ch
ma ch
ur ch
ion on
D ion
ga cio
id isto
b eran
sa ta
ri ono
aj ano
su mo
ko pi
23 72
97 67
la tu
j ov
ku ri
00 81
25 61
00 61
25 62
23 52
98 84
per aj
24 42
24 29
25 41
30 31
33 32
ni fi
r go
b sp
00 80
I nu
26 30
93 02
il ka
g iu
S um
in os
la de
E do
ni aj
el st
25 21
¦ ..
v ko
no p
to la
B ia
O is
O x
¯ æ
¤ s
Ŀ b
¾ e
¡ i
ľ r
Y H
³ c
Ä ¹
S Å
A W
å Ģ
Y X
pro gramojn
Ã¼hr er
matur uloj
Al sÃ³
ci klaj
Ele ktitaj
Alt mark
Ami keco
Kon forme
éķ ĩ
mal supren
kon fli
teran ea
ef ektiv
Spi rito
Ta belo
Ã§ ambro
kt uron
Ko oper
åı ¤
b tekst
su btekst
F lago
b lue
Di ferenco
Ġ2 601
en fel
ãĤ ĭ
H ild
mal nov
ES TO
R onda
L AN
ba ston
kon dam
der land
ãģ ª
leg ro
onon ca
Ru hr
nto logio
li zita
br Ã¼
f lam
ster d
M ans
ur cent
pen su
pen si
ide oj
so ft
dek str
da kta
ri laj
li ÄĿo
ra ÄĿo
enc 
G ard
La ura
tal is
K 
K Ã¡
min ado
oje vo
e ong
ka don
le mon
L ine
d are
C of
q uo
de kl
ver n
ci za
k orn
ez is
ro mb
n iÄĿ
al mu
su bi
ank an
vi roj
os ch
B oc
oc sa
on ke
ar ke
e ion
nt aro
C ara
ma ge
as ak
ri lan
d ja
D ej
ac t
e ok
om pi
25 72
24 73
25 74
55 77
ent al
es us
32 83
24 63
26 51
97 58
70 93
23 70
24 53
85 27
26 29
87 28
go c
go p
24 60
ro id
95 02
ti ki
ed is
ti da
k ik
mo le
W es
b iÄ
aj or
ar ro
Â ¨
Y B
T G
è ĩ
Å ĵ
Ã ¬
à §
Ä ħ
º æ
Y K
Ģ æ
Ķ .
İ ¿
D G
D j
± a
Vir ginio
Ġ( âĤ¬
B WV
Hi eraÅŃ
pe dago
ma lalta
Ã© dÃ©
talu na
le gom
tra ktato
por tugal
pro pono
Art hur
jna do
histo riaj
fondi nto
çļĦ å
Pa Äījo
H indu
.. .;
Mal long
ej unuloj
nd ament
fru kto
im post
ÅĿ los
La tina
paro lu
te ktado
Ġ2 311
int erre
Ob jek
Re komen
ap arta
v iloj
La hn
y dro
Ġ 035
t land
Ðµ Ðº
Fin inte
parte ment
ida e
³ Ð¾Ð
Ð¾Ð ¹
er lingv
ia flan
Li gon
k Ã³
par tia
st ude
sek ure
komp le
lat ono
tur oj
erg ia
le gis
bo cent
cent ri
dis vol
z one
su fer
d ung
ora j
Ti ue
re ala
A min
ang aj
ang el
pe au
of t
ial isto
li moj
ig ho
er tan
F ont
ic hi
ha li
d rio
br io
ag re
m isto
B lin
la lt
ÅĿ en
and in
k du
an du
aÅŃ g
sa ka
ia ce
ak ra
ak ro
il lan
E man
ok ta
25 68
95 67
04 67
K ot
C ot
24 74
la mp
ir s
ir b
de toj
23 79
23 82
22 81
24 81
ar us
pr us
23 62
24 83
22 83
25 63
25 51
ru so
95 58
05 54
24 39
25 42
93 32
ni go
n ist
S co
07 02
st ol
ek se
se ma
om po
to po
ul as
ad as
u um
ar ant
J ur
05 01
to le
ri Ã
y in
» å
ŀ ľ
f h
Ĳ æ
´ ¯
w m
× ĳ
Ķ »
a É
C G
Ñ ĳ
ĭ ï
be werb
ëĭ Ī
Mal antaÃ»
. >>
per kubo
hi perkubo
ven dejoj
komp lekso
uni versita
isto foro
Kr istoforo
Lu xury
t butiko
re tbutiko
tra dicio
pro tekta
vizo ra
nor dokcidente
can dela
jekti vo
Q SR
Ins ularo
vi zit
Ġ* ****************
kon stitu
de taloj
Mas ary
iadi loj
¨ åı
po ÅĿt
fer eca
ab elaj
ho maro
vi laÄĿ
sem ajno
Ka toli
kv enca
La ye
V II
L IN
J aron
Te orio
akt uala
vel on
sig no
tiÄĿ is
49 150
ĭ ï¼
V enk
pri moj
mes ita
raÅŃ lin
tri ch
C oo
s ista
S Ã©
k ori
ung en
H Ã¡
en son
am pli
for te
re don
ona ci
uj are
gu sta
on iko
ut ero
c ero
bu so
nte co
pa ca
le ca
ez aro
ta mb
ar eb
ÄĿ era
er ian
C op
ch n
an aro
isto lo
Po sta
av ig
gl io
pi ÅĿ
ni fe
gra de
bo ut
d man
ar man
t man
B ec
A ks
22 68
24 68
ra ter
23 73
07 67
98 67
mp ul
K ent
ma ku
24 82
26 83
si va
re ic
07 58
22 70
25 52
85 12
25 59
24 41
sp lu
45 01
25 09
se a
se g
ki d
ra po
z um
it um
ti um
tr un
ur te
I el
j el
di ro
mo ti
in no
ia z
J as
A to
U ra
E ro
« n
x s
O j
V G
Z w
I Q
ë ²
Ø ¯
Y Q
Ļ ¨
¶ v
² -
âĢ ²-
/ #
Î ´
br ychus
xo brychus
I xobrychus
âĢ Ļ).
fra pinstru
Herman nstadt
Jo hns
pre miojn
Al fred
klo podi
Tra diciaj
oc say
Kal ocsay
Mal beno
ve stojn
mo dulo
At lanti
tra dukado
Ð½ Ð°Ñı
fic ialaj
kul ture
stara s
ele menton
b eck
Ek stera
mal novaj
do kcidenta
cident en
serv 
Mal supre
äº ¬
lame nta
Ð½ Ñı
Mar cel
De legi
zaÄ ¥
g istra
S EJ
le ktado
Ð°Ð ·
Re ligi
naj a
Ð° Ðº
ne ofi
w ork
m poz
ach im
Jo achim
pe ntr
me tita
tig as
w ska
te jon
Ã¶ rg
li Ã§
komp uti
b Ã¼
Am ster
or gen
rec on
rok si
vor to
z aÄµ
di kta
zi one
ul ten
c eno
an ejo
tr ang
V ali
or ilo
ask ul
li for
mon te
c ern
er sek
ar moj
at uo
amen on
pe gu
ero a
g ero
to mb
G ub
ha a
ch ia
raf ik
fa z
B ib
isto te
re sta
st av
er iaj
om ba
tr and
per int
aÅŃ ta
ud d
lan a
ta bl
se jo
ec en
e Äµ
ir p
o kt
si re
63 50
g ic
27 58
94 54
26 52
00 42
fi to
00 40
f aÄ
c aÄ
- ".
00 30
lo ki
po e
il en
ad al
´ ne
b ie
h mi
Ġ( âĢĿ
ci nt
k ÅŃ
ni m
le aj
t lo
ka Äī
no b
ar st
N Ä
J I
Ń ¦
į ç
® æ
ĥ ł
ĳ ç
Ù ĩ
d L
S Q
B T
Ĥ Ĵ
U U
Z v
Ch ristian
âĻ ¯,
âĢ ĺ.
de zajno
stra tegio
Tut monde
ka tegorioj
B ulteno
repren oj
dka sto
pro fit
ptemb re
tele vido
ap arten
Li mno
maÅĿ ino
fo lioj
Sch war
s injorino
G PL
kal endaro
di fino
mo dul
mal supre
temp aj
komu nika
vers acio
bo dy
sur faco
G AE
de blas
Ð¸ Ñı
Åľ tatoj
Unu flanke
ba pto
MI D
tov sk
kv arko
iÄ ¥a
M Äĥ
F rag
¼ ãĥ
P ass
ter mino
AN D
lekt on
onte co
E rz
tec aj
se nton
J ES
M erc
Ã¡ ros
pli mul
spe z
orie ntaj
ti poj
âĢĻ ,
la tion
f Ã¶
k lav
F lÃ
Re lig
ers onoj
Kom une
el cent
mi rak
pri mi
pli gran
Ma teo
ulta jn
anÄĿ on
to ler
g amo
ÅĿ raÅŃ
ene di
la kta
mu ele
Est 
onom oj
l ung
Ã¡ Å
ala is
ulin oj
si ber
aÅ Ŀis
end ante
end el
la don
E ast
dis ko
en za
P ez
in ism
pi nta
W hi
ha in
na ch
Äī iel
i anto
z ara
ad lin
lo ÅĿ
ka fe
is aÅŃ
aÅŃ ra
be i
be it
st af
s af
ak er
ej s
Z im
27 67
g ir
66 66
di toj
D ent
24 64
37 58
06 54
03 84
em per
27 02
26 59
ond ro
24 80
Li ve
05 30
99 02
y po
Ti po
et ri
ne me
un st
ek ur
an ie
k ek
ma de
at to
y na
me k
lo lo
al y
C ri
no c
d la
ia ro
S as
V io
Ñ ī
¥ ĩ
æ Ľ
± o
D v
O W
ç Ľ
T j
Ī í
! :
L j
# ,
ī ç
Ļ¨ åı£
Ļ¨åı£ åı¤
Ļ¨åı£åı¤ éķĩ
ģå Ļ¨åı£åı¤éķĩ
£ ģåĻ¨åı£åı¤éķĩ
ç £ģåĻ¨åı£åı¤éķĩ
ëĭĪ í
ł ëĭĪí
Kom enciÄĿis
orÄ¥ ideoj
åįļçī© é¦Ĩ
ä¸īå³¡ åįļçī©é¦Ĩ
 ä¸īå³¡åįļçī©é¦Ĩ
ºĨ ä¸ŃåĽ½ä¸īå³¡åįļçī©é¦Ĩ
įå ºĨä¸ŃåĽ½ä¸īå³¡åįļçī©é¦Ĩ
éĩ įåºĨä¸ŃåĽ½ä¸īå³¡åįļçī©é¦Ĩ
An kaux
drom us
Limno dromus
Pr incipoj
Ko operati
con fus
ÙĦ Ù
be fore
. ï¼Ī
æŀ ľ
ÅĿ ranko
du Å¼
ºç§ Łæ
åĩ ºç§Łæ
anta ÅŃaj
Ka pelo
anh ajo
lope au
c lopeau
F ajro
aka demi
ad line
prezid 
rim loko
in cidento
infor milo
kc iado
ele menta
tri liono
To meo
vi vanta
us kle
Y DE
tegor y
ca tegory
isti ÄĿis
lan edo
S NE
ti vero
d burg
ul aron
Pr ojek
TO J
Disku tejo
vel io
Kart velio
hu mil
ä¸ ª
F alk
Ð½ Ðº
ul ly
pre poz
ãģ ¯
M aÅĿ
si kolo
sch er
Ã³ c
M unk
fo logio
z olu
le ktu
va zon
ks aÄµo
z Ã¶
dek stro
Ã¼ d
Ã¼ n
Ã¼ s
lÃ Ń
na cie
erb urg
O mar
ol anda
g gio
E tio
.. .:
h ler
me Ä¥
Pro gre
ens oj
?âĢ ľ.
th y
ge ogra
ÄĿ elo
A ven
k raj
Ã¡ za
n orm
sc en
L ui
k ers
ang er
anc on
C ali
don aj
b ine
po ld
um ante
pe ton
z uro
fl or
pro b
u nta
r bi
ha ta
ch io
ag an
er ino
Â» .[
ci ano
be le
uj on
ra lan
ci vo
man da
T ec
pi z
eg em
ri Äīe
03 66
23 78
26 63
04 58
00 70
97 54
96 54
25 43
85 19
00 31
d sp
b id
es co
iÄī i
al ul
D et
ad s
ni um
22 91
H ur
D ik
pe li
is ek
st ek
ci c
re at
lo h
ma a
ka w
E re
.. )
en li
y te
io f
st j
oj s
ç ¦
Â ľ
Ĥ ¨
U J
T B
D y
Ĥ u
. %
æ Ļ
³ æ
/ '
¾ a
¥ l
¶ m
) |
kam paranoj
Ã¢ teau
uskri pto
Lu ksem
ÄĪ eestis
N elonge
spe cimen
éĥ ½
kl asaj
Ek speri
Ag entejo
p falz
g edio
Infor milo
di vido
pre ciz
hara j
r mao
roup s
ton alto
ra kont
po pul
pro test
or nam
M ajo
le 
bj ekto
zik aj
zik 
C Äĥ
ab eloj
ni kov
E ich
s iloj
ta tojn
ba hn
ÄĿ inte
Ġ 043
instru ment
stit ute
laÅŃ dire
kolo raj
sch en
( ?)
al kla
Mal proksi
fic 
iz onta
D ÃŃ
D Ã¼
Äī eroj
Sa vu
ci onoj
J une
rez or
u rec
kur son
ta kta
mal ju
id th
one co
li kan
onom ie
u art
Re ale
pli k
if ri
ang h
iÄ Ŀis
io lon
mon ia
ch au
B uti
ko ver
g uro
a tor
E ste
en ing
eg ip
anta do
em ojn
h oc
on aro
ib i
il lin
bo ÅĿ
per ba
la ba
an sa
F ono
gra b
Ka be
to lan
A vo
pe jo
ns er
u ec
al eo
ok us
S ok
er pi
la ks
eg in
22 72
22 73
ga li
me tu
mo sk
in ov
03 76
us si
22 61
93 54
95 54
84 27
00 29
86 28
so k
22 80
es pa
26 40
R ut
O ut
22 89
o id
le ve
93 30
o co
co u
ik va
ÅŃ ran
ed al
er ul
ad ia
ad r
un y
en ÄĿ
pe an
el to
o el
ma e
al re
ro re
ra ri
ro y
ª ç
G K
Ń æ
¯ è
Ð ¥
Ø ª
Å ¯
L v
T Y
K N
ĳ Ñ
Ń ç
F B
Ba haa
âĢ ¦),
Mem kompreneble
laÅŃ litere
ka verno
âĢ ¦"
ãģĦ ãģ
ka fejo
de kstr
kr istnas
ci ties
Po kalo
âĢ ĻâĢĿ
lÃ ¨s
Kri tikoj
ÑģÑĤ ÑĮ
h onora
man ife
h emis
Per iodo
pro centa
ad resoj
G eologio
terna tiva
iu taga
Kun labo
sam loke
f ederacio
rigar do
erni est
kan aloj
Est onte
lingv isti
est aÄµoj
B lank
ark inda
uÅ Ł
z Ã³
pat ro
kar io
Ã© ry
tar y
h Ã¶
Ã¼ l
pek ta
p ekto
ct us
Ġ200 904
permes o
st ela
ro ck
erb aj
il ler
bel aj
A bel
kta Äµo
man aÄĿ
th er
ial ista
c ind
G Ã©
tin oj
ls ki
res son
te ble
ers ono
J uda
li van
di kto
ia don
mon io
to graf
M ei
sek u
er ial
j uo
go tika
al ea
ul tra
ver bo
u ver
up it
n ero
bu ko
h orn
vi ca
la tan
re pro
o bi
or ian
ch y
int enc
S ke
ag ar
aro s
sta g
N av
c anto
i ze
aÅŃ de
ti ano
as ita
G ud
vo de
le ja
F ej
ent ej
c ac
z im
eo p
oj eg
B eg
48 67
22 74
ga ÄĿ
G ir
og t
00 78
22 62
00 64
22 64
si te
per u
00 59
94 31
lu so
26 60
ar id
30 30
04 30
26 09
ol la
or se
S ad
ur h
it ta
on it
ÅŃ as
am f
io u
aj v
¥ ŀ
X M
J S
¼ Ķ
S s
æ ¯
İ æ
Z Z
y v
´ Ĥ
ł (
Ŀ ¥
re zolu
DI REK
Su pozu
De brec
âĵ ı;
me toda
ma laperis
man uskri
 ajhoj
Vid indaÄµo
API TRO
m pozio
si mpozio
Paro lante
Kon stitucio
Ĥ æŀ
ãĥ¼ ãĥ
Re lative
le kuloj
eo logiaj
ï¬ģ Ã§e
Mal rapide
åĪ Ĩ
is kut
Ar kite
di rekto
in klin
zist anta
skri te
t usa
isch er
Plu rajn
ska tolo
ti Å¡
Å¡ ek
su pera
ve blaj
ri ÄĿis
Inter kant
sp ekta
lo tov
v encoj
Äľener alaj
L erni
ur baj
Ek esto
ente ze
at eria
ÐµÐ ³
N TO
ven cion
let ter
ga tiva
labor 
Ġ 036
fer aÄµoj
st aÄµoj
g ento
er rob
errob ang
int errobang
rato rio
y ama
S her
Ġ* ***
I ome
an Ã§
" âĢ¦
ser vu
os eco
moj oseco
ra sis
us ence
Mal san
en ire
do bro
!âĢ ľ.
kta don
kti kaj
om ili
tiv ajn
der iko
ane co
ment i
Äī ulo
E ura
c ons
B ons
ÄĿ ulino
ki nto
9 001
lon io
no mon
men au
z ona
H of
ita Äµo
ant ismo
sk ismo
l ere
kv ar
vo Äīo
le nte
ma tan
I ron
si taj
ub aj
di ojn
ch le
z oc
ek ino
pl anto
o ba
and ra
du to
ono ma
lo gra
c ano
zi as
ent ita
ra su
ce la
ak an
vo ro
ec io
ok ra
Äµ or
ut ter
87 67
ot en
og en
og i
tu di
tu mo
86 77
26 78
22 78
26 79
22 79
S us
22 63
U ru
ru ta
ic u
27 54
04 54
57 85
05 59
22 29
o gr
te go
pa p
22 60
] ".
u ol
D ig
ed es
S po
ar iu
um s
99 91
te ur
os x
âĢĿ )
es pe
na i
li el
nd aj
nd y
h lo
ti ri
nt y
H ra
W T
a Ê
Y U
è ¨
Ï ī
G H
É Ĳ
/ ;
ĳ r
æ º
¸ n
į n
Fre deriko
Fran tiÅ¡
ÄĪ APITRO
Rim arkinda
fre kvenca
de kdu
b iografi
aÃ ®ojn
al teben
Ir landon
Sta feto
w aben
Sch waben
pen sado
ni cipoj
Kom erca
Me moro
pre lego
os lovakio
lami koj
fin anca
çĶ »
Mal sano
burg hausen
Hild burghausen
ron deto
S onor
va stig
IK A
siko logio
Pro pag
ja rajn
arki ismo
Ġ2 491
kt uroj
· ÑĮ
at endi
Vi deo
M etu
un uoj
N esto
Ġ2 611
Ġ 040
am mad
liÄī a
B EL
K ER
Äľ eme
labor anto
ig inte
TE R
don aÄµoj
am bre
st foje
ia foje
lib re
at her
ti zon
se jon
laÄī eroj
st aÄµo
ta stro
iz onto
F Ã¼
ÅĿ inoj
pl enk
us lando
ĩ Ð°
L und
anÄĿ u
Sam ide
il tri
aÄĿ 
rik te
kr ista
S kul
er coj
c ulo
ta doj
tal ojn
ert s
tin gi
rin d
ble mon
ers io
el ber
g ang
K ang
Åľ ari
ob le
H au
A uto
nt ajn
uti loj
ani ere
ud ho
De bu
ca de
ani oj
iÄĿ ado
ing hi
bi to
it roj
ek zo
pe ch
ch im
ÄĪ iel
di kaj
as ke
P ag
li cio
ig anto
s lin
ol lin
ze te
iv as
du o
ÅŃ aÅŃ
an ono
di ono
al be
Äī ak
lan i
P ej
z ej
im aj
22 69
eg g
al eg
00 71
22 75
ent er
26 82
05 61
56 54
26 39
26 42
ond er
lo so
ar pa
G lu
ur nu
00 60
ol ul
ig er
es po
95 01
st et
et re
en um
O ne
st mi
mi to
h aÅ
en it
ÅŃ ko
li do
di me
li me
00 21
ar re
/ ),
z te
¡ ra
ra w
é ħ
å §
w t
¾ å
- ]
ĺ ¥
â ģ
¬ a
§ å
Â ¬
W C
Ant ikva
os lavio
Jug oslavio
Lin ukso
ek zerc
po tenco
nord oriente
b ulteno
Rez ultoj
kon fuz
Äī ielo
G imna
ob jekti
F unkcio
su preni
ni cipo
di teran
Stra uss
Vin ilkosmo
åĲ İ
ordin ara
rk estro
german lingva
H igh
isto telo
Ar istotelo
Mo mente
R ango
F isch
es anco
Kont ribu
eran tilo
Esp erantilo
lu dado
at umoj
âĢĶ âĢ
kan ada
E volu
reÄĿ imo
lo ÄĿantaro
lara cio
Dek laracio
val oroj
sa kov
K TO
sf ero
top ia
li gno
us onan
De parte
ser vas
me talo
ĩ Ðµ
ra gon
proksi ma
vor tar
La ure
inc ol
pe ct
b inoj
Kon klu
ik eco
oci on
am bur
ta vol
S tat
ub lik
ÄĪ ika
ri bon
ci fik
fik s
oo per
ju ÄĿ
g th
h one
x ten
un alo
on doj
mor ta
d rin
C if
gv id
B oro
Ļ !âĢĿ
an ato
N ort
ond ona
ra moj
in ea
) );
n ismo
ver ba
al ef
A gu
O rb
ra ca
ur ism
he y
al ing
ig eb
ank oj
s anta
br ia
av in
mo ÅĿ
M and
and is
l ge
Z ono
u ano
bo li
Li gi
ta ce
ak lo
k ja
en man
ul man
em pi
00 69
92 71
ri ter
c ter
26 72
ot re
k sk
B ov
ri us
26 62
70 96
08 54
vi vi
00 39
05 42
93 41
26 41
H ond
26 80
04 40
06 40
98 30
90 30
co lo
P se
er ran
ul la
et v
ad m
ad in
at ant
ur un
un un
ek aj
ek k
p de
at z
na is
t di
ta di
d mo
A me
ta me
U nd
nd as
E ar
S aj
Ń ,
T X
m A
Y P
N J
u q
Ħ ç
Ī å
Ø ³
ħ è
R R
n É
è ī
Ĥ ī
Â ¤
´ o
Ħ è
âĢ Ļ!âĢĿ
len gth
Mo lotov
Sul livan
Ber trand
Cam bridge
rÃŃ quez
En rÃŃquez
ja raÄĿe
As sociation
af rikan
Mult nombraj
Unu opaj
ge stap
ä¸ĸçķĮ è¯Ń
So cieton
pra ktiko
Sim pozio
ðŁĺ¨ðŁĺ¨ðŁĺ¨ðŁĺ¨ðŁĺ¨ðŁĺ¨ðŁĺ¨ðŁĺ¨ ðŁĺ¨ðŁĺ¨ðŁĺ¨ðŁĺ¨ðŁĺ¨ðŁĺ¨ðŁĺ¨ðŁĺ¨
publi kigita
enke tilon
???????? ????????
Su fiÄīe
v onomo
Ling vonomo
eksp lodo
vi rina
Sek retario
Nov goro
er tulo
sp ertulo
ge edz
Sek vante
rest 
legom restaÄµojn
Äµ azo
ì Ŀ´
J onat
Ð· ÑĮ
ľ çĶ
Kun fondi
å¤ ©
ä» ¬
t xt
labo rado
nif as
ÄĿ ejoj
Ð½ Ð´
Instit uton
Pro duktado
for mado
A MO
tr upoj
Ġ2 091
A mple
ÑĮ Ðº
fi eld
ia flanke
edo bro
bic edobro
Ġ2 321
Ã© cs
Ġ2 301
Ka zaÄ
D 
ÐµÐ ¶
rika do
lika Äµoj
O lÃ©
la tiva
Ñģ Ð½
Ð¸ ÑĢ
j unula
ãģ ¾
ãģ Ĺ
£ ãģ
ac tive
ch efe
na boj
em bra
la gon
re kla
t Ã³
ve joj
ono logio
cer toj
Ļ âĢĻ
Ã¼ nd
rb aroj
ling ton
f rak
H ugo
Histo ire
on stru
stru on
int eli
dent an
fa ult
St rik
ko lta
iv idu
Ã» d
rol as
em oni
ne ment
ma raj
tik 
il Ã¡
in mor
min oj
E ber
ang as
ig ilo
rom aj
ÅĿ uto
are jo
ial ism
ana li
ik ismo
ir ina
uro r
uro v
c ont
w ing
S ing
ri pro
eb en
ron to
d era
T roj
Äī ip
ci anta
anta l
di anta
l ha
ha y
ch am
... /
Ġ/ .../
ag x
ion e
or ion
h ino
por ti
ÅĿ on
ro sa
be li
zi va
ce to
ur ce
fo li
ro fo
ko vo
ne ja
man ia
B ok
B ost
eg on
.âĢ Ķ
K ondi
90 72
v ot
00 74
ir da
86 66
T og
95 75
ov sk
90 62
00 83
90 63
96 51
h ru
33 54
26 31
fi el
er pa
40 11
05 60
26 89
on id
M id
ur co
ig g
P ul
s iu
ur ant
05 91
om al
F it
ÅŃ j
h na
di en
v lo
y la
C is
× ©
ł å
¸ °
ï ½
§ ĭ
ç Ĥ
k É
¡ æ
¤ į
Õ ¡
ľ æ
è Į
B Z
Kor sakov
Ober pfalz
Die trich
pro tokolo
Ti uepoke
ÄĪ ifoje
Kom encis
toÅĿ oseo
tra dukon
kan didatoj
su bajn
P raktika
sz lÃ³
Vi zito
vo lapu
A ktiva
ÑĮ Ð¼Ð°
Buda pest
.. .".
jekti va
W EST
B BC
Ep iskopo
vj etn
IN FO
fi zika
ÑĢ Ð¾Ð²
da ktis
Re daktis
plu ralo
b ÅĿtato
su bÅĿtato
metr io
ko pio
Ð± Ð°
liter atur
El dono
ko smo
su bst
de tru
kle aj
sid oj
ÅĿ kap
M ajno
mal fru
ef reda
v iol
Ġ2 511
ci faj
C alv
na vig
ple ksa
om aso
T omb
pan 
m 
H Ã¤
O ise
J ose
sig ni
le zio
Ġ 038
B arb
po ly
spek ta
bre toj
A qu
ek tado
v ÃŃ
gin s
irka u
B rig
H Ã¼
Ã© lÃ
kon klu
ck et
rec en
stra to
kon fu
bon aj
ser ve
ez uloj
l uloj
ial 
b rik
A th
K ind
jar 
ve coj
R ou
ÅĿ alo
s sen
po doj
ek ura
Ã© li
p eno
ad eno
) âĢľ
Ne ust
for man
pa goj
g ona
ud ismo
s ante
et ante
li ton
o ho
di ca
ro ll
st op
hi la
ka pu
as ch
ko sm
in ke
ag es
est ino
K ino
ri ze
H and
and an
en ge
aÅŃ r
el ono
j ano
lu be
no be
or bo
bo p
de zi
su ma
ti ce
jo o
el man
ok si
96 73
74 07
te ga
46 66
00 75
z ov
er ku
98 81
96 64
70 15
93 70
35 54
28 54
93 43
95 49
e per
ne vi
98 39
30 39
05 29
93 31
03 32
es so
lu di
94 40
96 60
id or
id l
06 30
co g
di ki
ng er
em s
ar il
ad n
G iu
ik al
j om
in om
an at
x el
ro di
s me
ia li
n li
en la
X ar
~ ~
U O
¾ n
U Z
¡ Ä
ĸ æ
¿ Ŀ
Ö ¶
G X
× ŀ
¼ ĭ
ģ ĭ
; .
ľ (
M n
ĥ g
komp utiloj
Mor fologio
At lantika
Ak vofalo
Apo kalip
pa rolata
Kom encu
Po stmor
Ãī cole
uni versal
kor espond
tw itter
skult 
pr incipe
x ander
Ale xander
tri bun
ap enaÅŃ
komer cistoj
onim oj
ci vila
resa ro
a oso
u stria
Ser vilo
Ð° ÑĢÐ°
erni estro
la tera
ze poko
ge bir
ag adoj
Ġ2 631
kal kulo
di kat
ta bul
gra maro
Ð¸ Ð¼
F amil
fin fine
G EJ
Li tov
Ġ2 621
alaj aj
fun kci
ãĤ Ĵ
g igita
kt uala
ven inta
E mil
eÄ¥ oj
Pr Ã©s
IS T
AÅŃ tori
anÄī ilo
erb ach
nd orf
E riko
Aso cioj
Mal hel
za ÄĿe
A komp
pro duk
duk taj
pu rig
Ã¼ m
h Ã¼
om broj
c lub
w ow
l ling
ni gran
din and
Mal var
erv u
erk es
ma tio
F len
zu re
in dia
p alo
ol umo
f art
ale mo
pli ko
if f
al ber
ari ja
li par
ast er
ta dis
dz ino
ef fe
it ante
as ca
ez on
h ont
h ism
ek iÄĿ
R ing
H op
T hi
ub on
er ha
ch mi
du ke
gl oj
ÅĿ ut
ze co
ar iaj
ir ge
ge li
o fe
p sa
af u
u vo
mo vo
im in
diÄī i
00 68
ar ga
tu oj
77 12
96 79
ku j
90 83
97 64
si j
65 58
94 53
94 43
90 43
05 49
de vi
95 42
65 92
fi b
92 80
A pa
p pa
A lu
00 89
90 89
ol ve
50 30
t va
ÅŃ ig
b da
or et
li et
ad h
ik h
os z
R aÅ
de i
ci ro
do ma
ni p
G el
ri di
li le
T es
te ka
¡ ko
en am
P io
U to
G is
t É
Ã ¯
j A
è Ī
A o
e E
ç ´
Ĩ ã
sin dikat
Her aklo
VVV YDE
ing hien
War inghien
éĹ ¨
Ko operativo
br Ã¼ck
K 
Nu ntemp
Pro funde
Kr istofo
br unn
Is raela
ci meno
" /"
Sch rey
hom ilioj
Kon stanta
In verse
Ana lizo
y amato
kul turaj
te oria
Po ezio
Re ligia
Is lamo
Vi enne
alog io
ekster ordin
tik edoj
Mal novaj
rigar dante
Ð¸Ñ ĩ
Fo lioj
stitu cia
pozi cioj
ki gitaj
Pri vat
Reg istro
Ġ2 531
re ferenc
Re produ
äº ĭ
ro manoj
al done
lid are
II I
ãĤ ¹
ok esto
che id
Ġ2 501
st ilon
ch berg
A rag
em aja
len sb
M Ã¤
en sem
fe ston
ent hal
v itan
anta zio
Ven inte
im uma
sen naci
p asa
Ġ 045
anti gita
sh ajne
fek te
it sch
ku rado
qu it
Ã³ z
ut her
in igi
R Ã¶
k Ã¶
w all
F org
tad t
vi vis
W ikipe
Bi har
Il inoj
pren as
aci do
P ark
pon do
! !)
li ck
vo dio
den so
ÄĿ den
g ger
ens is
no bel
li gn
ti ele
zi tiv
tiv ojn
lo ÄĿo
Kon ven
T ert
s ung
J ung
w art
v res
ari anto
M end
R au
e ine
ei er
f eri
ver en
Pro ver
ver t
za i
em ante
ero f
ki nte
h ua
mb al
ing ar
si nta
va taj
ent ojn
ch ne
A ch
am az
P est
h aro
rg ano
gl in
gl ia
ri ÅĿ
ÅĿ Äī
ÅĿ io
bo toj
Po zi
ak r
li fo
f ej
ac c
ÄĿ im
ku pi
pi an
rm or
96 71
97 71
or ter
74 15
og ol
78 95
00 79
ku a
93 82
u us
96 63
94 63
97 51
88 58
95 53
93 52
94 49
97 49
per re
G vi
93 39
97 29
97 41
96 31
R ond
E fi
rt is
o pr
A nk
94 60
ve to
el se
ig s
ki mo
ar ed
la da
en il
G et
v ur
at tr
en ik
at te
B le
} ),
c ko
I ri
no o
G ia
st ia
z ta
J in
Ł i
I W
; )
į i
¤ f
] !
¶ è
¤ å
ë ¬
¿ æ
ĳ é
V U
M W
J T
Å ±
Ind ustria
à ¼ĭ
Ð·ÑĮ Ð¼Ð°
ÄĪeÄ¥ oslovakio
Ven ecio
Li tovsk
Aq uila
re stora
ser pento
so cieton
Ġ( +)
si milan
Inter nacian
____ ____
sen page
ek zek
Am erikaj
dÃ© ration
bo centro
Ur bocentro
Kultur centro
Okci 
K lopo
Su moo
ur bojn
æĸ ¹
Ïģ Î
Î¹ Î¿
Po lico
pital 
pre mioj
Po emoj
I rako
utsch er
c edoj
çĶ Ł
du ktita
pre 
at raÄµo
ko oper
mor tigo
M etro
kon ferenc
in fero
G loro
fic ejoj
ir landa
sch ool
S tilo
vi dado
bre dado
ÑĢ Ñĥ
Mal bona
Ġ2 391
ot mail
fi lip
Kom paro
distri ktoj
Ð½ ÑĤ
te stoj
po etoj
gion aj
V ER
p iloj
ur jan
B EA
an kora
Inter lingv
int erne
ekt 
ci igo
sek toro
qu art
Ã³ r
Äī iujn
En kad
ani zita
b red
u iÄĿo
un kte
ci eco
k lando
V und
re zis
ta ksi
ksi ta
st rem
p pen
l ore
Ä¥ eo
pre fik
ur ÄĿa
pr ene
al uloj
tra kti
ci 
¶ th
O der
la Ã»
k ind
ss el
ven io
Slo venio
to raj
u Ã©
Äī eno
ks eno
C art
h art
ÄĪ if
le nto
ber k
al gar
j ord
van s
mon i
ru are
pre m
si ajn
uti on
un gu
ton aj
H orn
orn al
al tan
al eb
ik anoj
p taj
fa zo
F erm
d ha
ta ke
cio lo
ino po
av al
ab la
ud anto
ÅĿ ti
to sa
per sa
ik ono
ud ni
per ce
O vo
le man
al ec
im en
pl on
00 73
ga o
h og
io toj
in ku
ra ku
92 82
05 81
97 61
94 62
05 62
05 51
94 51
93 53
85 85
90 39
90 42
97 59
96 41
lu as
em y
96 21
um ul
90 91
s ant
pe i
g aÅ
at ta
as mo
ta mo
al me
me le
le ko
lo y
ia ka
aj ta
er er
Ê Ķ
¨ è
R Z
å ¿
W M
' (
ĩ ª
S f
U e
¿ u
¼ y
Ë ļ
Ð»Ñı Ð·ÑĮÐ¼Ð°
Ðļ Ð»ÑıÐ·ÑĮÐ¼Ð°
Ke effe
Par chim
Se ptembre
Kun fondinto
li beran
Hamp ÅĿiro
En 
eÅŃ ropanoj
ÅĿ losil
sek ureco
ler nejon
po tenca
stmor te
ter apio
ofi cialan
ura sence
ide ologio
Ka tegorioj
re strik
ÄĪ ielo
li tova
Sch Ã¶n
Ku racisto
ka pelo
Po vus
or geno
im peri
Ð°Ð½ ÑĮ
on iroj
pi oniroj
B estoj
Nat uraj
mon taraj
ar pent
va torio
Teo doro
mo rala
ak cidento
ti eaj
ma ÅĿin
å® ļ
mes aÄĿo
bir ge
w ish
Ð½ Ð³
ap elle
kolo giaj
ri med
af abl
di ferenco
ort reto
Ġ2 591
IS AE
re zul
Ġ2 221
Ã¡ gy
A PE
ser Äīi
IV A
AS A
bi let
ÅĿ top
si tiva
enn ing
et naj
K EA
hen g
S omer
spe zoj
Mal jun
Į ãģ
ãģ ¦
Ġ 027
in ski
sch o
A ux
J iÅ
orta do
d ÃŃ
t ÃŃ
al kar
di cioj
rav io
omo to
O omoto
inis ma
cent oj
ak vaj
pon ojn
anÄĿ ado
D anÄĿ
ri eu
ko ler
ro Ä¥
laÄ ¥
V olo
las ita
on 
E rik
ar 
le vid
B ando
500 00
raj toj
Ã© es
up Ã©
ra tin
ÄĿ ena
mor e
rad io
re ale
kri min
l ers
anc is
Re ali
ato ro
D ato
v ine
at uto
Ŀ );
âĢ Ŀ);
in kl
ÅĿ uti
di gu
nt ez
il ing
n era
anta r
k ÅĿ
ba la
li ge
aÅŃ en
ono po
el ano
om ano
ud er
ma gi
nt ak
d vo
ja k
k jo
te man
k man
oj ec
L ec
am eo
pi la
90 69
95 68
95 72
T ot
ot s
34 74
57 66
og ie
D og
tu pa
96 81
us er
si da
b si
93 51
x ic
03 58
05 70
96 43
85 88
94 41
ro go
mo so
nu so
pa v
05 40
p ist
or id
g id
04 09
99 09
va o
ki ra
L ed
st em
T ul
G ul
ad y
um no
m ne
ne i
de ta
na ta
am iÄ
m ka
ri as
am is
am ta
nt ia
or w
io ta
Y on
Å ¥
Î Ń
É ¾
¢ å
è ĭ
¥ ä
Ļ æ
¹ æ
× ¢
å ²
E Y
B P
Barc elono
,âĢ ĻâĢĻ
DIREK TION
ER DIREKTION
KL ERDIREKTION
MA KLERDIREKTION
WEST MAKLERDIREKTION
fi rmao
ejs bu
F ejs
Vog tland
Nu ntempaj
Gur janov
al klaku
AÅŃ toritato
ï»¿ ï»¿
ľ çĶ¨
Franc isco
pa ÄĿaro
èĢ ħ
lid areco
çľ Į
Nov embre
kl asik
Ti mante
pr udent
mer katoj
LO dE
Ð¸Ð½ ÑģÐº
ad jekti
Ob serva
ig endaj
dep endaj
Esp eranti
diver seco
za vila
Bra zavila
SÃ £o
den aska
Mo delo
Vi deble
gran deco
er loko
fi rma
vast igi
ÄĪ ambro
C igno
Su kces
Ã¸ rn
ajn fino
Ń çļ
ÑĢ ÑģÐº
W itt
ust adt
v Ã¡n
istr 
bu rau
sw il
g istro
-- ï¿½
en heim
Ġ2 541
Pr inci
F ace
P siko
Ñĥ Ñ
gul aj
Fi lip
Ļ -:
âĢ Ļ-:
R NA
V enca
Ant ropo
te lita
mi lion
in jor
stri aj
an 
U top
ĥ Ð»
eri zaj
est onte
j tojn
ir land
al isma
Nen iom
er acio
C ES
Ð¾Ð ±
Kom erc
Ali foje
de talo
iu flan
la stan
I ama
b rit
rit z
S tel
ar lie
37 412
iri nte
W ys
K ras
kaÄµ on
arm st
Ã¼ nst
f als
kin z
web kinz
ven kis
ate ntu
eter aj
Sek vu
fri kaj
sk emo
Inter ling
den bur
urg ia
er tas
t rez
ab stra
ika ze
unu ma
A stronom
el len
lek te
eg uloj
le laj
tis one
cor tisone
ment aro
H ard
Ã© si
at 
aj nis
Ã¡ la
M ons
H ang
ar gar
M ong
st uda
A kto
ajn on
F ata
gu is
er bu
J uro
re tor
i tor
he i
he it
ing ro
j ing
L eb
est ron
La rs
i pu
erm oj
si ojn
rio t
raf t
am ion
av ino
ab aj
rg io
Se ba
or ba
f and
du la
Li ge
fe p
ko gra
nt ano
mi ita
ce do
J ak
ak l
ad vo
g ec
K ok
de diÄī
D eg
ter u
H ir
99 66
og ro
no toj
er ov
96 78
93 78
05 79
as ku
La us
05 83
ru oj
ru mo
ic c
05 52
33 52
90 49
99 85
05 39
99 27
T ond
fi co
is pa
in id
05 09
di co
an se
ki po
N il
ul z
ul en
iu d
j um
am os
om pe
aÅ ¡
o om
an it
at l
on el
oj lo
an ma
( ),
ko u
x ia
as ia
¹ ´
( {
á Ģ
ĺ ,
¨ m
¢ m
ŀ Ĺ
® ¾
± æ
£ i
ĸ ¬
) &
Q A
q i
ĭ ±
¤ ì
v z
º r
æ Ģ
æ Ł
Ŀ (
ķ å
Ì ¯
Ŀ *
A w
j É
Ch apelle
un uiÄĿo
man uskripto
Baz arov
vi tamin
Li ceo
spra chen
ta fiziko
ãĥ³ ãĥ
Mas klaj
lÃ ¨ne
å¼ ı
kul tivado
pa Ã±
per fido
sa bato
ci ganoj
edz iÄĿo
AÅŃ stria
ind romo
lami ko
kon silio
For male
lu dilo
Âł Â».
Di rante
P arten
le teroj
baz aro
kon tisto
de pend
dul on
atur on
h old
labo ra
eolog ia
da ktoro
Y ves
P entra
mo tivo
gram 
bl anke
ru ndo
ak cepte
so ciala
or bj
D iver
So lid
Ġ2 211
kva lita
vet ia
kf ur
ek tara
d eloj
ntra Äµoj
ĥ ÅŁ
B ill
mil ajn
I ER
ard enoj
ÅĿ itaj
isti kaj
kom pr
flan dra
Ġ 047
instru mento
T enu
aran ismo
ben aÄµo
geograf ie
onta in
sa tion
ke bla
D arm
A ÅŃro
ikipe dia
cent ra
ark io
ka dio
S ekso
din ando
Ä¥ ite
kci on
ne sto
N amo
el las
li maj
E ger
ens ig
A lek
no kta
an uloj
kti loj
na ÄĿo
Kom enci
ven ig
g alo
s alo
ri doj
ara doj
fer on
C ora
us ale
am uz
ulin on
umi ta
in ui
d ers
j ang
H uman
par taj
Du ob
ple ta
lu don
ern b
kon sek
it ana
ÅĿ ev
tro p
i ismo
pr ismo
La dis
ver to
gu le
st iko
A ero
r ho
r bu
ua li
ani lo
di tan
tor is
' ."
al ism
he mo
ing ve
ri ll
hi era
c era
om ian
pu ÅĿ
erm it
od y
ha w
ha q
ha an
ch on
E ch
az io
st oc
str um
ag no
w est
re ib
on ino
ar lin
gl as
ÅŃ ÅĿ
ÅĿ is
ze f
ze oj
di ge
ra ono
er ono
st ano
A bo
U zi
i fo
at lan
ns on
ks ia
34 72
99 73
07 73
93 73
99 67
H ot
74 16
E mp
og u
02 79
en us
45 61
34 62
it ru
96 70
04 43
93 59
06 29
06 41
05 31
02 80
99 45
id ad
id s
n ve
ik ig
ran ka
ed el
an ed
x em
il as
in um
un h
un ia
ur na
05 21
B aÅ
ci di
ar ci
am ni
b me
nt es
io ka
A ti
or ra
aj on
aj i
is is
¸ å
Ķ è
à ®
É ¡
T Å
Â ¡
¦ ¬
Z n
å ½
. }
Į ç
R J
k A
ģ £
J R
Ch arlie
FÃ© dÃ©ration
Fer dinand
Ind ividu
mo lekuloj
Inter nacie
W hite
te ksta
min utaj
Malav antaÄĿo
L ernis
Ro yal
m 
Fer voja
pro tekti
um fonto
Ak ceptu
pre cize
ver sioj
Äīemi zojn
va gono
dis falo
> </
Sa uve
Li giloj
ki rko
Kon fli
ren kontoj
v skij
æĺ Ł
De pend
Äī ape
dep toj
co urt
kon serv
ob serv
Rom anjo
di ferenc
S US
± ÑĮ
DO N
instru 
po pol
ad rata
so vio
P RE
So ciaj
H alt
Fran kf
P lata
ri kulturo
A LE
v 
R AN
o ise
anto land
esper antoland
ar inte
L ordo
val ento
i dire
on idire
ig rado
ko poj
am ps
Ã¶ sta
Ã¶ t
T rot
Ã¼ b
fri ed
800 53
cent an
Sek vaj
ksi ko
? Â«
Unu vor
t ler
t las
ur ger
re gn
A tri
al kan
ten on
v ard
or Ã©
ert re
om art
ri cia
ang ua
gar an
D ong
O rl
on eto
te lon
ri mon
po graf
ic ea
B ug
al ajn
ina e
K uk
uk ar
orn ia
ri ca
p tan
en iÄĿ
iÄĿ e
in ha
bl ojn
pa ch
ta ch
Es ch
ch li
es enc
p por
ab er
b ba
h iv
aÅŃ di
gra u
li zi
Â» )
i ita
te ce
mo fo
ia bl
.âĢĿ ,
ra man
eo f
eo d
rm oj
ks es
O ks
e ost
Äīe ti
ko ter
ÅŃ ter
ter ne
27 72
ot ro
99 74
ga h
05 78
78 12
06 78
46 76
et ku
r ku
ku ma
05 82
si ri
si ra
86 43
st vi
85 01
04 29
50 31
99 86
c ond
te lu
99 03
08 09
ne co
ar se
ng el
po to
as em
da la
et en
ne a
to ur
F ek
B ek
aÅ Ł
r ci
do c
me la
Äī iÄ
Äī ar
oj no
is ar
A ar
a aj
B oj
ç Ī
- %
f b
w k
ŀ ,
¥ m
ł t
Ī é
Ł é
é ĸ
ģ à
G Y
F V
dat umfonto
us alemo
Jer usalemo
up Ã©ry
Vi deblas
VVV QSR
Go ethe
Histo riistoj
Fund amentaj
kon scia
æ¼ Ķ
í Ĥ¤
Ĥ¤ ìķ
ni umas
Bos niumas
Li Mr
Ã¡sz lÃ³
gota beloj
Mem bers
iri hiko
car tone
???????? ????
ud nica
Pol udnica
Lang uage
ab unda
ÐµÐ» ÑĮ
Por dego
×Ļ ×
t 
fa cile
Î» Î
ri latoj
af idon
lu danto
kl asoj
ìķ Ħ
E stado
H idro
st rang
de cem
L ondon
ki lome
eri zaÄµoj
ab eth
Ð± ÑĮ
æľ Ł
re sion
pa pero
Ġ( !),
per fid
te xt
Al dono
G old
Ð¾Ñ ĩ
Sal utu
vali roj
A KE
Li gna
stra ÃŁ
ent ejoj
z nam
se znam
no logi
tono ma
ĥ Ð¼
iÄ ¥o
lu nde
Ġ2 521
tte il
konstru o
paro lan
O LA
li gado
ar iga
kor uso
kov rita
C ass
kun lab
TO N
ÅĿ ima
ÄĪ ilio
lo sita
vor tec
gor it
of eron
ag asa
tive co
z sch
ha qu
haqu iel
Sa haquiel
x ml
86 410
uri la
ic tion
ac tion
kaÄ ¹
il lar
lar ÄĿ
ne ct
con nect
kre is
ik vaj
Ant ikvaj
G ram
mas o
ck er
Pro mes
pen se
c ula
ic ht
ene co
C ens
dia lek
pt io
ten si
kam ies
Von kamies
sek ura
g ena
âĢľ ,
la tt
li kto
Äī don
O NG
et ern
Âł :
ana o
re moj
re tro
am ata
Ļ ?âĢĿ
âĢ Ļ?âĢĿ
ani za
ton io
iÄĿ ita
n he
esper ant
nter n
ron te
ub in
erm as
um anta
it ojn
tis h
ke ta
A lin
ra ge
Li fe
aÅŃ m
sa te
nt ono
ra gra
M ano
bo ar
tu bo
men i
re vo
ej l
A rn
ÄĿ ec
im er
pi ka
45 69
99 69
05 72
05 73
05 75
50 75
ar tu
j sk
sk ie
ov el
98 78
87 79
45 79
45 63
87 63
06 51
F ic
99 54
99 53
34 43
ri vi
d vi
06 39
34 42
04 31
ist en
99 89
E se
E va
S va
va b
po ta
em m
Äī il
om ik
ik lo
os ko
). âĢĿ
de ÅŃ
el de
g de
it m
A ci
G le
io re
re oj
Ġ" ),
* ),
d ko
¬ ).
Q in
Ï Ĩ
Ð ¤
í ļ
ì ĭ
U H
Ł ï
o C
Ŀ [
n x
] ?
³ ķ
Å »
N d
¦ å
ĺ º
Į ¶
Í ĩ
Egi ptio
stad tteil
Sam tgemeinde
ekvi valento
Kom pleta
Bio geografie
pro cedoj
loÄĿ denso
gebir ge
ÅĿ losilo
spe cife
den burgio
Bran denburgio
f avor
Ma lalta
L Ã¡sz
Unu sola
ar baroj
mi rinda
en ergi
me moro
R ock
Viv maniero
Ge edz
an lingvo
pl anlingvo
le ziaj
ip zig
çĶ °
ar bit
bj Ã¸
fice jo
Unu vorte
vok oj
mag ne
he liko
as komu
za tivo
A viv
ek ipo
Su pera
mor tigi
ko mpr
R ekta
kapa blo
Ch ild
Ġ( âĪ
grup oj
in fla
ãĥ «
« ãĥ
kÃ ½
so via
sf el
rip to
man ÄĿi
ko lum
fin aÄµoj
ÅŃ zoj
dic ino
V ento
N ES
u igo
it inda
olu cio
Ge pat
ko mento
ru sio
ta tion
Pa Ã§
L inc
org ani
rÃ ³
fik soj
fon so
er aroj
du kte
il ling
de con
lo sis
Ī Ð°
m une
Es ence
rib un
le ksi
ita Äµoj
la var
sp ite
ulta to
eÅ Ł
anÄĿ i
.âĢ ľ.
gn ano
fin oj
el uloj
ra laj
r 
in ioj
U zu
B elo
ard io
pa raj
al dr
pre fer
Ã¡ m
e art
kon son
pli ka
R if
po kri
J ord
en eto
Äµ eto
end ant
ort en
st are
ern er
di ana
er ismo
J up
om iko
nt ante
u ante
in ero
al ton
um ani
tan e
g he
ÅŃ eb
b anoj
on ian
t hi
zo le
I zo
zo la
ha la
p tis
u fa
anto ro
io rg
po lin
er ano
ek zi
en zi
su re
an gi
gi ti
ja z
M ec
lu ks
eg er
34 71
j ot
M ot
05 74
47 66
66 27
04 82
34 81
di us
v ru
50 70
07 70
03 54
05 53
28 53
50 43
27 49
06 59
87 29
45 41
go o
go lo
34 60
99 88
so mo
pa la
P ut
an ist
08 30
06 09
ni co
se f
ti ran
ta ki
ul da
A ul
Äī ul
k mi
ta mi
m de
de me
nt om
it mo
v na
mo i
nt le
en ma
or la
ia u
nt or
or ro
* ).
ĭ ç
ĩ ç
º ª
ª n
è ©
G d
ĸ è
è °
į a
æ Ħ
S x
D X
Ö µ
§ é
B p
Ľ ¸
× ĵ
U Y
L Ã¡szlÃ³
Ar kadio
HÃ© lÃ¨ne
gen eracio
bj Ã¸rn
Tor bjÃ¸rn
Ant aÅŃen
Pal estino
as pekto
tra gedio
vor tecaj
di teranea
Me diteranea
ÅĿ raÅŃb
Ra kontu
stra ÃŁe
pl enumi
B utiko
éĤ £
emble o
æŀ Ĺ
éĢ ļ
li migita
Pa Ã§jo
ka tedra
ad nÃ¡
z hou
Ra pida
Ġ( âī
âī Ī
Tom bejo
Po well
pri ntempo
bi letoj
ç ¤¾
a stado
kla varo
co eur
och sch
se arch
depen deco
Ekster ordin
ko dilo
vi zaÄĿ
No vaÄµoj
AÃ» dinte
dukt anto
D eman
sk ermo
min utoj
mo toroj
di gitaj
Ho telo
bir doj
in dul
al dono
se zono
F lava
Ġ2 641
ÑĢ Ð´
Sam uel
pa keto
cial aj
± å¸
eri 
Ġ2 291
D NA
ekta klo
Ġ1 111
ķ ãĤ
in burg
Ń ãĥ
ap lika
B lanke
let te
zer ta
ÄĿanta j
st Ã¤
it Ã¤
igu el
M iguel
dia lekt
in sig
li tajn
spek tiv
Kon cep
por talo
va toro
te fan
fic isto
M ann
C onta
eral an
K red
in fra
Ã¶ v
Ã¶ z
ma stro
kra taj
klu do
enk el
ling ua
et ty
en erg
ia blo
t german
ro gen
ck ing
stra kta
O stra
fu zo
ÄĪ erk
kon teo
to voj
ri Ä¥
te maj
g ens
ele kti
al th
ta ÄĿo
ar ÄĿo
Pa ÄĿo
vid ua
ni kan
and alo
el ulo
na doj
ard t
fer mo
ora cio
tt le
ak cia
L uz
du foj
ri nto
gar da
ta for
an goj
sek vo
Li moj
S tro
ast o
P ep
st ina
ero lo
bu do
nte ma
F orn
ua vi
la ste
or ez
he ma
he at
R ip
k ha
ch ic
ma str
ag ent
in aro
an isto
ab in
st anto
ap ri
ÅĿ ko
ba ti
N iv
aÅŃ o
ar be
P af
ak is
ri ja
M ej
ej z
jo u
ec z
an eo
eg ri
z ter
50 73
45 74
per tu
¡ ov
P us
si ro
45 51
B ic
04 53
45 52
per ta
86 42
99 55
06 31
34 31
99 48
50 89
z se
ran j
d kon
ed l
ne po
j da
K il
D il
ul c
A ne
un es
ik la
os ci
j os
al ci
ÅŃ is
is at
di ra
E mo
ma u
x te
§ as
x io
z ra
âĢ ¨
e P
® ç
] Â
ģ Į
Ã ŀ
Ù ĥ
º s
R W
½ ç
I i
× ł
Ĭ ç
t S
x d
ir kaÄ¹
Ðŀ Ð±ÑĮ
Ĥ¤ìķ Ħ
łëĭĪí Ĥ¤ìķĦ
ë² łëĭĪíĤ¤ìķĦ
Ex upÃ©ry
704 80053
98 70480053
Var sovio
mar ÄĿena
fig urasence
Res pondo
ê ¸°
ê¸° ìĹŃ
Į ê¸°ìĹŃ
íļ Įê¸°ìĹŃ
voj aÄĿantoj
kongre sejon
Pre feraÄµoj
anti tusa
Ark eologiaj
S sire
wett bewerb
ndes wettbewerb
âĸ ¬
âĸ¬ âĸ¬
.âĢ ľ[
in uito
iografi on
å ¦Ĥ
iri hime
fab rikoj
arki tekturo
Sam ideano
âĢĻâĢĻâĢĻâĢĻ âĢĻâĢĻâĢĻâĢĻ
Ali 
pensa tion
Com pensation
mon key
kun 
ka Ðķ
ir kaÐķ
âĹĭâĹĭâĹĭâĹĭâĹĭâĹĭâĹĭâĹĭâĹĭâĹĭâĹĭâĹĭâĹĭâĹĭâĹĭâĹĭâĹĭâĹĭâĹĭâĹĭâĹĭâĹĭâĹĭâĹĭâĹĭâĹĭâĹĭâĹĭâĹĭâĹĭâĹĭâĹĭ âĹĭâĹĭâĹĭâĹĭâĹĭâĹĭâĹĭâĹĭâĹĭâĹĭâĹĭâĹĭâĹĭâĹĭâĹĭâĹĭ
sen 
____ __
Mi rinda
¥ åŃĲ
ìķŀ ìĹŃ
bu ndes
Le wis
**************** ************************
å¼ Ģ
.âĢ ĻâĢĿ
Me zepo
Ã¶r de
te orioj
Tr inga
aÅŃ toma
da ÅŃre
pro ced
Z ales
Etimo logie
Ga zeta
Ar baro
bo hem
Feli Äīaj
Kon gresoj
Ð¾Ð² Ð¾
Sal Ã³n
ash ing
azi ra
per baz
Ġ( Â§
Ã¶ nig
Ĩ è¯
bil dojn
Tut mond
Ho egi
Kon vers
ali loke
dist anco
reta ri
ÅĿ anÄĿoj
gra mado
ÅĿ 
an glo
Äľ enera
Ð¼ Ñ
O NA
iskri ba
pol do
vi dita
sur fac
vi liz
tis che
ra che
Ñģ ÐµÐ
C ET
ET A
ur nal
rag ono
me tod
ãĥ ©
I TO
AS S
L AS
ł ä¸
ä¸ º
am eriko
libr ojn
p ose
P EA
O pin
P lay
e ach
bl onon
sci enc
Ver boj
Ma ros
as pec
pre tado
H inda
b Ã³
po logio
an onc
di rek
ÃŃ z
k laro
na cioj
fra toj
hel l
orie nta
p aÄµo
le ÄĿoj
est ras
Ã¶ rt
W ein
Tra duk
ef ekto
cip it
kol c
ti ntoj
ki gis
lo ts
tabu lo
E ck
u tas
B uc
F uc
or anÄĿ
ore la
ru sto
en ograf
la maj
al len
tri x
one mo
nst er
com ment
C ou
lan kan
J ura
dr ono
pic e
b ena
po ls
C ons
el son
in ber
gar t
uda do
ple k
H end
W ern
n ajn
L ep
n ere
R up
kaÅŃ u
ur ante
S ton
P ho
ho to
mi nte
ont ano
iÄĿ os
ri mu
ra loj
ÅĿ ado
Al taj
ub en
od en
de ojn
¤ ch
lo ch
F az
str is
e ag
C aro
ri isto
av oj
lu anto
F anto
gl aj
ze w
ľ .[
âĢ ľ.[
ba ko
ri ge
men sa
A gra
ri ano
e pl
Äµ u
e diÄī
o Äīe
Äīe lo
50 72
50 74
75 56
34 75
34 64
34 63
ic ro
45 53
87 49
z per
08 39
87 42
07 31
87 31
to fi
ma go
lu to
lu c
ek ut
id es
am ig
G ig
ad es
Ġ200 98
ur to
C ik
b ik
es os
y at
mo do
do st
am me
iÄ ĩ
s Äī
ri ar
la w
is aj
aj oj
K oj
h g
č č
º Ĺ
T k
Ì ¥
J F
O X
é ļ
R Y
L k
ĳ s
y x
½ )
¸ ì
Ĩ æ
è ª
V Z
Mis kolc
Le ipzig
Ju naÄĿo
Fer dinando
mo deloj
per 
So lidareco
pa rolado
Kon sisto
mi liard
en irejo
mi raklo
ab solu
eri formes
Av eraÄĿa
ko operati
ubile o
li bero
p Ã¼k
N orth
Sen depende
z kolora
ro zkolora
var bado
ÅĿ tataj
Äī asado
Esp lorado
p iskopo
kon cepto
S ieg
Bo hem
hem io
pli multo
kre into
Pri vata
Ð» Ð¾Ð²
is tino
P ech
P ÅĻ
vid vino
Ð» Ñĭ
Par lament
vast igo
¥ æľ
 lingva
vi data
ci kloj
og roup
umo mente
AÅŃ gust
f emin
kant 
igni fa
I TA
In fero
ber tilo
tilo w
na zia
Ñģ Ñĥ
kar bona
skul ti
am our
âĢĶ âĢĿ
A riz
vi ntre
ler nej
so ciaj
E fiko
Äī inaj
histo rion
simu ma
Mak simuma
er esa
le gado
N ET
T eÄ¥
ek zer
G LE
vi denta
k itan
ster land
ãģ £
cen zo
lank en
E ms
pa radi
ha ya
Ti uri
kaÄµ ojn
kv enco
Z lat
v ekto
el ph
Mal permes
lig aj
En erg
sis ma
ak cent
C uc
h mar
z erv
zi dent
I dent
an ner
Di fin
st uloj
uti laj
ili ca
tiv on
mi lia
eti ke
st ulo
an sen
d raj
um ura
ol ena
nÄ Ľ
en ier
orm or
n ber
J ang
T ong
C ari
S par
par oj
p ple
ÅĿ ato
po grafio
mon to
N au
w ort
f uo
Z ep
up p
gu ra
fa za
st ante
est ante
eg ante
ho ra
ho og
j uk
in ste
mb ri
o he
ing h
am bi
de anoj
li loj
pi zo
ub an
A ub
H erm
ch al
az oj
in iaj
aÅŃ do
S ono
fo bo
s su
ut lan
I vo
lo vo
f man
V ok
ks f
g eg
ga p
ir ur
b og
t tu
sk ar
M ent
45 78
34 82
45 82
us it
L us
87 61
87 83
ic oj
65 54
li vi
ti vi
88 31
65 01
k gr
gr is
er gr
li fi
go z
88 89
45 80
el lu
nu lo
a ol
ro se
ta va
kon ig
a ed
D ul
ÅŃ ul
K um
ur ri
K ik
u os
os es
: âĢĿ
ra pe
an ek
ek do
to di
g mo
En me
en me
es v
iÄ į
O lo
to ka
ti i
aj z
¥ to
on en
T Z
' [
Ŀ Ĥ
Ã ¾
F U
Ã į
H W
X P
å ĵ
H V
× Ŀ
× §
Ñ į
¶ b
¾ ·
Ö ¹
é ¥
K j
Ģ ç
indi vidua
J ancis
Sta tuoj
Erz gebir
cer emoni
Ma hler
ma lalt
stru kturon
Kv ardek
AÅŃ toÅĿ
hns on
fen omeno
Au guste
Ab solu
Av antaÄĿo
teben aÄµo
Jo hana
Jo Ã£o
mi grado
âĤ ¬)
ri mark
T endaroj
li cens
Pro tekto
Pre lego
Je anne
tis lavo
Bra tislavo
Ð°Ð ¼Ð°
aÅŃ stria
Ma lami
In vito
l ÉĽ
mili te
urbo domo
Ã©n Ã©
Fru maten
f onduso
In struistoj
hid ro
æľ ī
j Ã¸
Ð½ ÐºÐ°
La rus
me titaj
de kli
kun labo
pr usa
k tron
SO E
P SOE
orie nten
co gna
R IK
 raj
A cti
Kom pil
kap uloj
kap tado
Pro viz
ab sol
in fekti
aÄ ¥o
for teco
eran tic
Esp erantic
fel s
B reda
ãĤ ¤
ÑĢ Ð°Ð
luzi va
g dal
ig nal
mati kaj
re komen
iÄĿ antaj
ill ero
land 
hor lo
kva li
f enda
lov ena
W hen
N TE
ri gita
Iu foje
Ġ 056
pec aj
hr ing
ss Ã³
Ã³ d
p ÃŃ
01 133
orie nto
ude nto
an ime
mal lar
Ã¼ rg
kre te
de pon
ru ck
g his
pen na
T oto
at las
ci las
vin ki
ber ger
Äľ ene
ene vo
' ],
ista jn
ind le
oni oj
d alo
alo wa
Forn alowa
Pa ulo
kt ulo
em ulo
l ard
H ura
pr Ã©
z eno
nis ch
Ã¡ ra
R Ã¡
mor oj
ust an
ez ue
B rad
Li tt
orm aj
umi lo
ren o
d ang
d res
in ari
mi lon
na don
au ke
rom po
d ine
al uto
w are
z ana
an tro
tra s
ata do
id ere
gu z
p ante
rb an
ar ca
ut uro
ec tor
ak tor
al ez
mb on
Q ing
ll en
or eb
rs on
hi f
ub j
est anta
ac ha
ed ojn
ch est
T rio
est on
ion ano
fa ro
di isto
V ino
vi and
gra sa
di ano
il ano
ka be
be v
bo le
Ka bo
zi er
in lan
ra vo
vo ie
de vo
vo ki
li ja
re ja
b ja
st ej
rn am
or eo
diÄī o
56 69
b eg
33 71
45 71
ter us
A sk
50 78
33 79
Ti us
88 83
04 83
45 64
di ru
A ru
D ru
06 49
85 50
45 59
33 29
ci go
rt on
pr io
t sp
nu t
R id
i id
se um
s kon
ad el
ek um
ant en
ne ti
un on
un as
le mi
mi j
me ÅŃ
na p
y me
an le
ti ti
Y or
y en
ra x
! ]
H N
Y W
M b
Ë Į
¦ ?
o B
K H
) +
l A
° à
Î ®
N b
F N
° é
f y
M d
Z y
ª è
ê µ
B h
è »
C W
Ĳ ä
n E
meÅŃ aÅŃa
Ku meÅŃaÅŃa
ele ktron
Ti umomente
Leo poldo
Bar budo
Fra enkel
kro kodilo
Ka ÅŃzoj
Re daktoro
ver shajne
pro gramaro
Me zepoko
Õ¡ Õ
fab rikado
pe ctus
cons pectus
par lamenta
fu ndament
âĢ ¦..
me todon
Reg iona
it Ã¤t
fam ily
Ja cob
Flu ghaveno
And reas
åı¥ åŃĲ
KÃ¶ then
euro vision
Aran yos
T Ã¨ne
Î¯ Î±
ok citan
Pens ilvan
vi ctor
mal forta
åŃĲ æĪ
Äľ ardeno
Akade mie
D iana
pro dukti
æĸ ĩ
C DU
ie ÅĽ
jek tivoj
Ñĭ ÑĪ
sur baze
Se zonoj
Ãĩ iutage
eri torio
Ã¡ lka
u menton
po ezi
AÃ» dante
Ma roko
van ilan
******** ************
Ĺ å®
å¤ į
An kau
ÅĤ os
¥ è¯
åı ¯
uz 
ast 
al uzo
Åľ anÄĿo
ce zar
on insu
ku lado
sam granda
o Ã¿
pr iskribo
va ÄĿaj
Ru ÄĿaj
kam iono
te lito
set ti
ern ardo
ļ å¸
ne vide
me tala
RO N
EL NA
ajn fine
Ġ2 421
Fa ktoj
erni nte
Ð°Ð ¹
âĪ Ĵ
¦ âĢĿ.
âĢ ¦âĢĿ.
ÄĪ inaj
emi zon
aron ne
G aronne
s berg
A tent
ÑĤ Ð½
ãĥ ĥ
ande x
y andex
w alde
à´ Ĥ
St ric
ric tl
Tra pas
z itan
Sa inte
S TE
10 707
ª ãģ
ES P
erc aro
u foje
du foje
Ka talo
ig ny
en igo
flan ka
mal mul
bra ro
ci tita
C onf
vi ntro
rek taj
t tel
de jon
lu red
F red
gi tar
ī ï¼
ne komp
imi li
S lav
inist er
f ekto
tl y
K lub
m fon
nask iÄĿo
tr upo
mo rav
ÄĿ eco
Ĩ Ð°
em blo
rak as
( !)
us ay
G ay
li gen
io ksi
lu stra
go gio
Te amo
las ado
Mar gre
F raÅŃ
ht io
gn on
gn an
laÅŃ d
re ate
aÄĿ er
mo tiv
tiv is
ci lio
der ic
ten u
H alo
Ã© an
C ert
fr eno
um ena
su daj
j Ã¡
! ):
H art
son e
ro log
is uz
res c
eks aj
ali gi
L ord
ato roj
to grafio
io graf
b ern
ana la
g ame
R ast
ep el
dis ta
s ina
ma ton
an ton
man Äīo
ho ma
er ho
ho ta
ne bu
am bu
J ez
z ing
pro fi
mi anoj
z loj
ve taj
sk anta
at ha
ch is
m rio
re kaj
La ke
ro ke
is ke
af fa
ma cio
por ci
ara c
lin go
ki ÅĿ
g ÅĿ
ti ÅĿ
iv is
ek du
r ge
gra p
lo be
be a
re bo
bo ko
bo is
o zi
h ita
h ud
ur gi
le fo
vo c
w ac
io man
ne man
H ec
j ok
ok er
88 69
73 95
ir st
no tu
kt re
r sk
st ov
or ent
54 76
ku i
ku po
08 82
us il
nt us
si mo
ro si
ru to
o ic
46 92
06 53
28 43
04 39
08 42
28 59
35 01
y so
pa pa
50 40
08 40
nu na
is nu
ik id
ri ve
se mo
ig ad
U ng
li um
ur ma
] âĢĿ
or pe
ek io
el ni
na e
ma di
to me
le w
es am
K es
la ka
į ka
f ti
to ti
io ri
C li
H F
e L
¼ å
Ì ª
Ã µ
$ ,
S j
X S
» è
x n
è İ
= /
l q
S J
Ì ł
B F
á ´
r A
Re freno
de klaro
ag entejoj
Karakt erizaÄµoj
min imuma
Bal kario
Euro pean
ÅĿ tatojn
re gistra
sen paga
ko holo
Kom unista
sig nifa
sam ideano
im posto
profes iuloj
ilvan io
tr onika
æ° ĳ
P edro
de tekti
Dec embre
eg aleco
celi ero
W agen
ele ktitaj
pro dukto
E arth
Sov etia
kro kodi
Bri tujo
ci fera
resp ubliko
Kon sekv
Bern arda
mar bord
D ÃŃn
Ø§ Ù
vili zita
aÄ µojn
me kani
bo domo
åĲ į
eturi loj
sen dube
komer cisto
vesper e
mal kiel
pre pozi
Äī ampi
fi rst
tekst oj
or dono
fe tamino
resk aj
en ingen
SC H
ministra cio
pa ges
Ñĥ Ð¼
La tine
iu flanke
krom nomo
Ġ2 401
B LI
z ulto
re zulto
tu paro
iol ono
per rigar
zik oj
Äĥ l
isc us
kv aron
nal oj
ÅŁ a
B ass
A AS
vil on
Ã¤ n
at iso
ka dro
instru adon
g itan
A TE
´ ÑĢ
Ð¾Ð ¶
no ski
an lingv
Al bre
plo rado
ÄĿ igo
qu et
nz er
h ama
cer te
kon tig
Ju lie
po lic
Ã¶ m
ve stro
Sil vestro
el dor
all y
as imi
cu ment
do cu
c lav
Ã© rÃ
permes ita
Äī iun
lig as
ci ling
Ã Ńt
rib as
ksi do
ing ula
Mal bon
d vor
ro voj
Ä¥ est
m unu
d esu
Ġ2 2005
h len
ranc es
sk ele
tik uloj
c ini
ab ili
ili on
va tiv
th on
c ista
b ane
ap ane
D oni
sen da
gra doj
R ando
kt raj
Ã© la
C Ã©
mer ka
ek tin
A mor
ust o
log ne
rin k
kc ent
O sc
te nto
g ers
e ers
ev ang
ong an
¨ res
ari do
par tan
ali d
ord ina
lu kto
end anto
ri end
S end
al for
ial on
ial ajn
n ame
V ast
ol ute
in ajn
ajn aj
uti ta
ere i
Se ver
n ante
f ton
el ho
ca st
la ca
ing ua
re tan
tan io
k ste
ci mb
ing is
nter ÅĿ
ll y
po ll
ron g
G ron
ron a
ra roj
R ado
ka taj
ta hi
zo w
pu to
g erm
Äī anta
p enc
in ag
Äī aro
de fa
ra fa
e ib
am ino
va sta
anto m
h lin
me ÅĿ
ar ge
aÅŃ pa
ut ono
¥ rd
ÄĿ ano
A ud
ud in
r ja
ej aj
ok jo
j ec
ok ul
ci pl
f ost
y nc
ter t
na ga
kt en
d sk
] ",
ic ent
04 81
08 81
ti us
N us
07 64
08 63
48 51
ic ki
86 54
27 53
88 49
38 39
56 42
27 21
04 41
ul so
sp an
08 01
ki ro
ni kon
H em
ie da
p um
y un
ur ro
ik ia
D it
z ni
b di
J al
p ko
ko c
ia ra
ia i
ħ ¶
V s
) >
ĥ Ï
Ã ħ
Ĥ ¯
¡ a
; ,
è ¢
C J
U W
¢ .
d B
è Ĥ
× ģ
Ï į
E q
ĥ ¡
Ê ²
H G
l O
è ±
« å
³ ī
Elek tronika
mon umenton
komis ionano
Pass eriformes
Sul pice
W erner
aku zativo
Erz gebirge
pre miita
Gio rgio
ÅĿ atantoj
voje vodio
âĻ Ń,
Mu nicipoj
Si lente
sig nife
Kov rilaj
sp ektro
AÅŃ stralia
Kon stantino
J uneco
su bite
mmo lekulo
gra mmolekulo
Mari times
Ro yce
MÃ¡ laga
zerc aro
Aleks andr
fun kcioj
Ek vival
ju ÄĿisto
mal juna
anta ÅŃen
ne tou
mal hela
Åľ tona
ma gaz
N itra
gar disto
De zerto
kon sum
Stu dentoj
mar kitaj
so lida
kon takto
ser vojn
den seco
Kom erco
Ad ministr
Al ison
de cido
di rekta
W elt
en eza
W ash
us itz
D ick
Â§ Â§
ba taloj
å® ¶
bo telo
de tale
ma gne
Tek nikaj
S ÅĤ
al vok
ser Äīu
Di ferenc
A test
zi liko
Iu tage
an kajn
em uel
Ñĥ ÑĤ
Ñĥ Ð»
K ON
Reg ule
Ñģ ÑĮ
gul ojn
alf eld
antist ino
ekzem ploj
riz ono
Ã¨ res
eg alaj
sk luzi
onge co
tv io
La tvio
gra mati
¤ ãĥ
kov Ã¡
A ksa
V AS
f lag
Ð² Ð¸
gal 
ä¸ ĭ
sita toj
Ã¤ nd
G EL
lo gion
B ER
Ñģ Ñģ
ter pas
¿ Ð¸
arb aroj
ak ordo
poz ante
asi vo
ãģ Į
ãģ į
rb ach
st orf
ru saj
ekti taj
el sch
mal lib
pro kla
on nor
tig aj
ci igi
eral di
hel p
ara ban
or use
Mal sam
ÄĿ aÄµo
gra bla
S inc
Ã¼ ch
Gr Ã¼
Ġ199 110
kra to
erd amo
Rot erdamo
s kol
lig on
f onoj
de kre
ble con
aÅ Ŀoj
ber gen
sk urs
rov sk
uc c
M erk
to lik
ide anoj
E Ä¥
Äī Ä¥
re maj
ens ante
aÄĿ ado
kul tiv
ma kul
d 
on coj
sen s
mpe te
Ã¡ v
Ã¡ ch
Ã¡ ti
M ust
ust er
ust aj
v ue
f ue
t res
1 001
en flu
an eto
end s
or goj
are ta
kl are
m ern
ast on
ism ajn
D ata
as ismo
ver toj
U za
b ina
ero us
ur ton
er ste
tik is
he on
S he
e ing
li anoj
ank v
P ian
] .)
us hi
an ub
erm aj
ag ojn
ac ojn
ek tis
str ul
in ion
f isto
P ab
ÅĿ ur
ze Å
sa ÅŃ
os sa
io sa
gra s
C af
diÄī ita
R ak
m ja
ac ks
d Äµ
ks ik
ost e
07 68
37 71
ter d
06 72
z ot
ot to
56 74
og on
08 75
di kt
33 81
x us
07 61
37 62
37 83
07 63
33 51
03 51
37 70
03 53
07 43
38 52
36 49
28 39
48 42
88 42
07 59
33 59
35 41
35 40
fi oj
ri pa
G ut
h ist
lo ve
08 21
or kon
B ed
ed w
N ad
ik um
os m
nt os
ko de
it ri
ia ci
J el
ma y
ka is
´ te
). .
A in
Y an
å »
§ į
É ¨
æ ¡
ç Ħ
ç Ļ
Ĳ ĥ
ì Ħ
» æ
F W
L X
R j
Ī °
Ń .
U X
° è
K p
æ ģ
È Ľ
T v
bel oruse
fr eneza
VÃ¡ clav
tly Slo
tlySlo ts
Stric tlySlots
ģ à´Ĥ
àµ ģà´Ĥ
sem ajnfine
å¤į æĿ
å¤įæĿ Ĥ
å¤įæĿĤ åı¥åŃĲ
å¤įæĿĤåı¥åŃĲ æĪĲ
å¤įæĿĤåı¥åŃĲæĪĲ åĪĨ
ob Ã¡lka
Univers itÃ¤t
La penna
Sh illero
Bri tish
æĺŁ æľŁ
¥ æĺŁæľŁ
æĹ ¥æĺŁæľŁ
labor renkontoj
âĢ ĺ,
ra jtojn
sem ajnfino
For igendaj
ek strem
Spe cimeno
ofi ciro
urco er
co urcoer
Mont riÄĿis
N bsp
re gantaj
reÄĿ isoro
gu fujo
sen erara
Wie ÅĽci
t Ê°
Ä´ urnalistoj
tre zoro
iu matene
é¤ Ĳ
dat reveno
Mi raklo
fra gmento
du oblaj
Gu asco
Sub tenantoj
Ġ* ********************************
Al voko
Ø± Ù
Si milan
Ãĩ iuokaze
sci encistoj
Si lezia
æµ ·
22 1211
pote zo
eb enaÄµo
Ind ivid
he ight
anal oge
Jaro slav
Do kumentoj
pro grama
pro vejo
Le hx
Fa cile
aÅŃ tune
al lasi
let ters
news letters
S porto
el Lando
Bab elLando
ÑĢÐ° Ð½
ack ard
P ackard
Ð½ Ð¾Ð²
hol z
ul troj
rÃ© ny
Ã¶ rÃ©ny
Sz Ã¶rÃ©ny
Ch arlo
Inter konse
X ML
cist ojn
in stein
A FR
o logia
G ÅĤ
il dojn
Bo zen
is tron
Pro test
ita tano
Kom itatano
erik anoj
La dy
memb raro
prezid 
kl erig
Pro gram
Ka talogo
ÑĢ ÑĮ
ar tist
os set
sf eld
kop f
to mata
AT A
And rea
Ð°Ð ³
Ð°Ð ¿
luzi ve
p esa
V IV
lab ori
Li bio
le cion
sb ach
Ã¤ ch
P sal
fre do
ER O
erac ia
R ose
nt itaj
ba zan
omer ia
P omer
C asa
ff el
jun aj
ĵ ãģ
N ach
mana ko
ma tajn
kon ekti
if ekt
kre bs
ti qu
¡ ÃŃ
mar gin
mo mento
f lic
S hel
Ma poj
g 
Ma stro
pa kaÄµ
duk as
rig ht
s orto
B org
Ġ" âĢ¦
ul aroj
lig ante
kre ta
Bu y
ci ty
atu oj
t mar
kv erk
ig ebl
kci as
h lis
ore mo
em ore
fik aj
E fik
c las
tis maj
ol len
st ele
ok uloj
[ ],
Z oo
tiv 
m 
nt 
F ou
kiÄ Ŀo
W ies
B ert
ent ena
ern Ã¡
d Ã¡
T Ã¡
tr ue
si ons
gr eni
n ers
gar de
ran gle
res d
ord en
po lon
d end
in don
) Âł
Ġ !âĢ
ul tro
el tro
ig xo
ata jn
ver d
la gu
za u
it ero
t Äīo
u tor
s iÄĿ
ing al
im mu
ha anoj
c anoj
anoj o
ron ie
en roj
de pu
ha ga
oj ojn
ro ch
O ch
t ch
C oc
oc a
Äµ ag
fa h
li fa
in isto
nt ino
av on
Z ara
to lin
a gl
ko ÅĿ
ur du
l be
c af
' Â»
Ļ Â»
V ita
on lan
d lan
.âĢĿ .
im um
eo b
ks in
R ost
eg ni
04 68
Äīe co
08 72
36 73
02 73
73 24
mp ia
mp h
ir l
sk as
27 78
35 79
ku st
32 81
56 61
08 62
04 62
08 51
27 70
35 53
88 53
38 43
35 52
28 49
04 49
56 49
en vi
ki vi
33 39
04 42
88 29
28 29
56 29
07 41
ka go
go ti
A ut
Ġ199 03
er id
id li
se il
ig lo
on kon
H ed
ed d
ed as
z ed
al po
il mi
nt ad
p iu
ur ra
ur di
O ur
al mi
I ÄĿ
pe le
om te
ra it
ni r
me on
me lo
x es
j ka
h no
nt io
p st
ro x
Z an
¸ Ķ
( ,
ç ¾
x z
ª é
ĳ :
ãĢ ĳ:
+ (
ł ç
ç ı
® é
N W
ª æ
; }
¾ o
. Ĕ
ī ¤
ë ¦
Ë ŀ
Ľ a
J C
U h
F H
Y Z
T W
h c
² å
¨ à
¯ ç
Ur bodomo
al koholo
Fun kciado
un unura
Fru matene
Si mplaj
J azz
Para dizo
tra diciaj
vet urado
ser Äīado
gv idanta
E kip
Pe dago
×ķ ×
mo dern
Ø§ Ø±
doku 
inin grado
Ju lien
ilj ono
in fini
Äī ambroj
stv Ã¡n
I stvÃ¡n
Pas porta
ro oge
hu ndoj
Ka talu
ve tiaj
Se ptembro
Di rektoro
klu bojn
Ïģ Ï
Îµ Î
Ġ2 5000
mi litaj
vost i
no vosti
konst anc
¥ ŀå
Ð¿ ÐµÑĢ
az ael
D aÃ»
P into
vo Äīaj
Ñĥ ÑĢÐ°
S idante
es lao
de klin
metr oj
he zit
osed 
ti que
ri belo
me zur
ma haj
å¤ ļ
pide mio
ape lo
D PR
ar bara
p uran
kon vers
gv ajo
Muz ikaj
sol ute
b atoj
mu zul
âĢ ĻâĢ
Po pol
lom bo
ele ktoj
Ð°Ð ±
¥a il
MiÄ ¥ail
Fran ken
den burg
Ã¼ hl
R ET
pa lata
isko poj
I RA
z omb
regi ono
ent uzi
enn es
pe zaj
S zent
sem blo
eri tori
Li gno
sc enoj
ĥ Ñģ
¶ Ð¸
so hn
f eso
N EA
Äľ Gi
Ġ 075
Int rodu
¿ Ð¾Ð
A spek
ek sci
om boj
Kon stan
rab aj
!âĢ Ļ,
ba zon
su ban
Â¸ âĢĻ
re bla
W Ã¶
iaÅ Ĥ
ph er
B arte
s cie
ling van
tan eco
¶ Ð°
len inis
lan taro
al tas
mar s
st ulta
stru k
O den
a stronomio
ÄĿ aÄµ
ku koj
rop ajn
bel s
p dek
ask uloj
ci laj
op ini
ini te
na 
su naistoj
li one
el der
al ven
pa rat
raj to
ÅŃ raj
ura t
ko mpe
fer aj
J ena
am ora
is mor
in dan
c ue
sk ale
cia li
b sc
vi nto
u nto
f ers
int ers
ang ho
D res
res se
ali da
!âĢĿ ,
for taj
ne for
Ne for
m for
au ri
le ine
no graf
men uo
j ug
tra do
om ajn
or ismo
te ismo
er ver
el ver
gu jo
aÅŃ ton
pu Äīo
li nte
B uro
ka tan
mb oj
mb le
ing aj
el ing
ing lo
ve nta
ar bi
ra bi
K eb
eb ra
am ado
on zo
pu ko
V od
e ha
k ke
is aro
ci isto
nt isto
Äī ino
ino p
am anto
ÅĿ no
la ÅĿ
r ze
B and
sa ge
E fe
sa h
ono ro
il ono
bo w
af ar
men ci
ita r
eg ita
t su
ar gi
r ce
ak am
A ja
O rn
c ec
b eo
as pi
V ost
07 69
eg ro
32 71
04 71
02 72
72 16
32 72
56 73
67 99
47 67
57 67
04 74
35 74
ir mi
33 75
02 75
36 75
04 75
35 78
32 79
ku mi
oj us
04 61
36 62
56 64
33 63
28 51
35 70
08 70
56 43
37 43
04 52
27 52
35 39
04 59
so h
to so
re lu
03 11
ve y
07 09
co c
Äī kon
F et
in ad
ne ÅŃ
ie ur
c tr
e ik
ar ik
en pe
aÅ Ĥ
J om
Ġ200 26
H at
do d
ni er
na te
nd el
di li
A di
me b
p me
me aj
Ġ200 24
D ri
am am
o as
O ta
ta e
O to
to e
´ ç
D Y
I j
Y i
à ¹
Ļ ¥
Ī æ
à °
d K
ĩ é
Z P
ĥ Ń
v A
ç ½
» ç
U Q
E Q
å £
) *
¯ )
bl ankajn
Win netou
int eresa
le ksiko
him alajaj
his panlingve
komp anioj
po lski
hor izonta
ja raÄĿo
angz hou
vi rtuala
Tra duku
fe liÄīo
Sch ubert
kon ferencon
ÅĿ tup
F lÃ¤
id ioto
la tve
As emble
Ko legio
versita toj
Ni cola
kur sanoj
na fto
ka tedralo
Infor mation
ÄĪeÄ¥ oslova
wiki media
klu bejo
Su praj
no mina
faci las
g vidi
st udoj
de zir
Be uve
be zonoj
m stadt
M edio
ÄĪ inia
pro filo
Ek splo
ser pent
Di ferencoj
Bon vole
ri kultura
jna doj
) Â».
pre zento
Tran sli
Ðº Ð¾Ð²
or kest
vat net
Vi dinte
mon gol
æĺ Į
p port
Ð¸Ñ Ĩ
b skrib
su bskrib
Sa laman
In spiri
vo kato
sol dato
ol ingo
ia okaze
a dep
ro ix
Mez Åĳ
Lasta temp
pa rolo
tra leco
udh ana
P AR
Å¡ ov
enkon duko
Kr uroj
· å¸Ĥ
dat umoj
ev alon
ors et
EN TO
pr Ã¨
Ã¨ v
z cz
X II
zik e
e esto
leme nta
Äĥ ÅŁ
P Äĥ
t antaj
ve stoj
De vig
Kun lab
A RA
ser vil
hal tejo
kul tiva
ÄĪ eÄī
A mato
uro paj
j Ã¤
Ad oru
a ise
Est onio
for pas
ÅĿ nur
onta ins
R TE
Ġ 046
P asi
uv aÅ
om bre
di fek
or igo
dent igo
ment ario
it inde
ÃŃ st
Po lic
b aÄµo
F Ã¶
Ã§ as
C lar
Ã¼ nc
vu on
el ling
se nti
¿ Ð°
rak cio
A kci
do maj
kti ÄĿo
oni ma
on elo
ie doj
ura si
ari 
sc eno
al ena
Z Ã¡
ver dan
al wa
tt ing
log y
V ala
w ai
G ui
l ber
ali anc
ong h
ari um
ko ali
ali g
en ilo
ord er
ko ord
ci don
er mon
ti goj
E ine
est ona
aj are
of ia
pre so
ci moj
a ug
su ver
c ante
z ero
ita ton
Al bu
A ca
uro po
tor ta
mb u
er iÄĿ
Al pro
eb ek
pl anoj
ip p
pl anta
La ch
or ch
ch st
c enc
sm us
Era smus
er tis
P az
az on
di ke
re ag
fa g
D iam
ib en
de sta
G av
J ara
ur lin
lin k
ÅĿ ir
v and
h and
sa ÄĿ
bo z
zi ro
m men
gi la
ce st
ri fo
vo li
at ja
ro pi
diÄī a
04 69
04 73
66 67
03 74
27 74
mp is
la ir
ia toj
56 75
tu to
l sk
36 79
37 81
us in
am us
33 61
37 51
38 51
ru ci
33 53
36 43
07 52
07 49
vi ro
vi j
vi ra
36 39
27 39
Ġ199 57
36 42
35 42
Ġ200 27
38 59
48 59
35 29
07 29
48 41
65 11
sp r
" ".
02 89
Ġ200 07
ÅŃ kon
C ad
um ni
en mi
âĢĿ ),
ka ÄĿ
li pe
i ek
nt it
ma ci
O do
n ni
as el
¨ me
´ me
C es
nd is
Ġ200 23
aj ma
on ka
j ko
Y am
te e
¥ en
M oj
D Z
¾ Ł
¾ Ŀ
Ĭ ï
® è
D n
L t
¥ ³
à ª
§ æ
~ )
/ ~
© æ
İ ç
è Ĭ
K W
G W
« è
Ķ "
Ļ ç
ī į
Kom itaton
Sc rooge
ma tÄīo
çĶ¨ å¤įæĿĤåı¥åŃĲæĪĲåĪĨ
æŀľ çĶ¨å¤įæĿĤåı¥åŃĲæĪĲåĪĨ
å¦Ĥ æŀľçĶ¨å¤įæĿĤåı¥åŃĲæĪĲåĪĨ
man ÄĿaÄµo
Sa alfeld
ch eers
lam fetamino
ti lamfetamino
me tilamfetamino
Ros setti
di kapuloj
âĢĶâĢĶ âĢĶâĢĿ
bu ndeswettbewerb
Li ttle
al elekti
âĢ Ŀ[
âĤ ¬).
Ag rikulturo
d sprachen
frem dsprachen
Feb ruare
ge okesto
AÅŃ toÅĿoseo
Ŀ ï½
ï¾ Ŀï½
Ł ï¾Ŀï½
ï¾ Łï¾Ŀï½
Ĭ ï¾Łï¾Ŀï½
Ra dianta
libro servas
dis vastig
komen canto
Unu igho
ser viloj
hin ajano
ap ply
si beria
é£ İ
âĶ ģ
ģ âĶ
La mbert
ab soluta
kre bsliga
kon dut
ÏĮ ÏĤ
âĢ¢-âĢ¢âĢ¢-âĢ¢ âĢ¢-âĢ¢
âĪŀâĪŀâĪŀâĪŀâĪŀâĪŀâĪŀâĪŀ âĪŀâĪŀâĪŀâĪŀ
tomo bilo
an lingvoj
pl anlingvoj
H azarde
Ar kivo
Voj aÄĿoj
ir mejo
ÅĿ irmejo
cimen oj
mo ravia
De vene
tro viÄĿis
Do kumento
ÅĦ ski
Tra dukita
Ã© tÃ©
ar hx
!!!! !!!!
meze poka
ÄĪ asado
t â±¼
kon â±¼
è¯ įå
Î± Î½
Sim bolo
sch eid
lin gua
¥ âĢ¢
go vina
Ġ.. ........
kam arado
Org anizaÄµoj
ku raci
Plej multo
dis lao
Mon teto
ig ebla
mi ralo
T ech
D IO
E dom
gis troj
lo metr
de hid
ÅĻ ÃŃ
me mst
çļĦ ç
¥ çļĦ
na tivaj
alter nativaj
ioz aÄµo
Ri belo
G PS
å® ¾
P OR
ampi ono
Sin dika
eko logia
e pide
Äī arma
instru 
sis tema
F IL
Ģ äº
et tes
e olon
Nu kle
fu ndo
aÅŃ paro
Ko lom
i fiko
Klas ifiko
ligi lo
ni faj
Mon tara
ern burg
mo del
fi kado
Re gado
M ET
kt antaj
gan aso
Mer ganaso
sek cion
st ilio
Her hor
Ali ÄĿi
sk rap
E ric
S EA
ÑĢ Ðº
Ġ 060
gor ia
es aÄµoj
Inter esaÄµoj
U zoj
g asa
di kal
z acio
ãģ ı
T orna
in ujo
nÃ ½
P aÅĿ
bre ch
R hÃ
ir sch
sch w
ux e
da ux
St yle
ek spe
qu est
Ãĩ iujn
pa kaÄµo
tek ni
eri mento
. ****
En iri
C onst
s inc
Br Ã¼
z inoj
ti kol
Mar gare
le ster
rÄ ĥ
s ling
ko lb
fran e
sa blo
Äī ela
pon da
10 400
ta ire
gen er
z erb
! !"
fu za
ite kt
Äī ika
h ore
bu sto
o Ä¥
sd ono
dent 
Kon vin
E th
ur ista
ma ÄĿo
pan an
ÅĿ elo
gan da
¼ ss
en eti
u ven
G rat
eg ulo
io doj
ka raj
De tal
am mer
g Ã¡
rad y
in son
ig ejo
on ejo
A ren
ka foj
as hu
ang al
k anc
anc ojn
ari te
sti la
ask oj
k end
ort un
ei z
B ei
P eri
a tika
in ute
uti le
p ismo
ver ÅĿ
li ef
ent ina
N ero
ol ero
ci mal
tan g
' ].
at he
he ta
ch ing
esper a
nt pro
on bi
m bi
ra ron
rs z
B ank
op s
ci taj
zo to
pu so
T ub
G ha
enc isto
rio tis
kaj a
ion aj
iam s
b isto
as ino
ek sta
w av
is ab
C ab
ara ro
E lin
ra lin
ÅĿ O
ge a
aÅŃ aj
E rd
mi ano
is ano
ci uj
af er
ak in
fo ra
ja b
ie jo
W ac
nt im
pl um
Äµ et
W eg
.âĢ ¦
36 71
02 71
37 72
35 72
04 72
35 73
lo ga
ga di
la kt
b ent
37 78
02 82
33 82
ond us
on us
56 51
04 70
02 70
48 53
27 43
03 52
28 52
ni per
48 39
Ġ200 57
27 42
08 29
36 41
03 41
O rt
S pr
I so
Ġ200 87
Ġ200 45
ut ri
r co
os co
ol li
io va
Ġ200 08
Ġ200 96
Äľ O
na da
ko da
da i
ma da
Ġ200 95
de ad
g um
Z um
ne o
ur la
tr l
G os
os is
mi ro
Li mi
Ġ200 99
el w
¨ le
d ma
aj re
ro ri
ģ no
P am
x as
is x
É ²
² à
ĥ å
B H
æ Ķ
Y J
¹ è
Ľ æ
Ĭ ¨
å ł
Ä ķ
) ~
« ç
¬ é
e D
Ð ¯
, \
* '
) \
H L
w d
Z S
Ç Ĥ
ĩ ,
K J
r E
H X
Î £
* /
Ant aÅŃaj
Ra dikal
Ka stilio
ev itinde
Ba haanoj
pro gramado
Äī konteo
Fran Äīkonteo
Var sovia
d Life
Bir dLife
hor loÄĿo
ci vitan
Lasta tempaj
pro tektado
Ka taluna
on insulo
Ab soluta
mal molaj
dina stion
mi lionoj
Vi laine
Re ÄĿlando
¥ æľ¬
æĹ ¥æľ¬
bi leton
po stmor
Ek zerc
an glan
er lingvistiko
int erlingvistiko
dago gio
ç ģ«
D VD
ofi cir
orie ntita
le zian
ÐµÐ½ ÑĮ
ãģ® æ
R oth
ura sian
ge meinde
ba tali
ita tanoj
Kom itatanoj
bord aj
Âł Â»,
ripo va
dokci dent
in araj
T asko
Jo 
Nor mala
li dae
dist anca
AÅŃ dinte
Ori entaj
b umon
Is lama
kon vena
E terna
Leg endoj
Ñĥ Ð³
C yr
Po polo
isch es
K Åĳ
In struado
O kulo
st aris
in stig
Kun veno
bur ÄĿaj
st adi
Ñı ÑĤ
Kan did
eran tigi
a vide
I EK
S EK
ãĤ Į
zik an
ligi te
in aloj
vi ntra
do lara
te mati
oj iga
ÑĢ ÑĤ
pl enan
ma tura
po lno
IS TO
ek tak
ci vil
ra cion
F ilio
ĳ ä¸
h aja
fen di
en igu
IS M
Ã¼ tz
aÅŃ tori
re tojn
raz io
asi va
10 708
ag ento
aÅĿ ita
la lingv
kor ekt
tr inki
aÅŃ flan
bra do
La stan
rab al
Al proksi
V orta
tel la
tel li
da ktu
¦ ÃŃ
en igi
K laro
ma tia
ze bla
ku ira
Ã¶ ld
p inj
T rie
lav on
do lar
re kor
Kon kor
m iÄĿo
ondi ntoj
er eco
ve con
ty n
p sis
cl es
Ã© ans
Orl Ã©ans
zis ti
pr unt
C erv
erk re
kaz aj
lo voj
ko sto
en ger
T rop
ens aj
tri aj
Äµ eta
pt 
is ioj
io th
ri th
ne ÄĿo
f ind
c ard
b ard
ard oj
v ura
Ã© me
Ã© z
g Ã©
f Ã©
ch ert
m mer
tin id
ar daj
- ÂŃ
si mio
ik son
la vado
g eni
uz aj
li umi
re nto
ch ang
W ang
gar dis
F ris
ÅŃ par
L eks
C ob
S ob
flu e
ord s
van ov
se au
er ine
li ona
z are
ern f
b pre
ik ana
!âĢ ľ
tro la
% );
kl on
um ajn
ab ajn
ti ajn
lu ata
ver p
ver oj
Ka ver
ver in
E ver
pro ver
ver y
E up
li kv
el ante
as ero
por ton
se nte
lo ca
O mb
ism ar
p iÄĿ
ic he
l he
esper anto
pro vi
pro m
mu re
y ll
zi anoj
F era
A rs
es ian
en ian
b ian
ig hi
K ub
a ub
ub u
ha vi
ch et
D ag
fa el
gi isto
sta in
av os
ab li
anto mo
E lt
b iaj
ba ul
eran oj
uj e
K ud
r gi
u ak
ta fo
lan go
t vo
al ja
ej e
x jo
ir man
ok as
ok so
p pi
36 69
27 68
27 71
do ga
76 66
04 79
32 82
G us
K us
33 64
ru si
86 63
04 63
07 51
35 51
04 51
li ru
56 53
48 43
Ġ200 37
Ġ199 37
08 52
vi co
Ġ199 27
so li
to pa
ul pa
Ġ199 87
Ġ200 04
ki to
po kon
Ġ200 06
c po
is em
J em
da z
da de
o il
W et
Ġ200 97
ad ar
D ad
er um
Ġ200 93
Ġ200 94
ie f
ie ta
to mi
Ġ200 05
is pe
v om
L om
a at
ni z
j ni
di ri
w es
¸ nd
lo e
Ġ200 25
ia e
F ia
te w
io i
ra is
U st
Ń âĢ
Z U
ĥ è
ĩ ã
K w
B K
Ø Ń
ı æ
J V
T Q
ī è
¤ h
ľ ì
T J
} |
ľ ?
¾ ä
ł ì
Ģ è
F j
Will iams
su pport
Ko lombo
Ek zercaro
Pin okjo
al bane
Plenk reskaj
Si cilio
a deptoj
Ren esanco
ka tastro
erbaj ÄĿ
MÃŃ stek
hid roksi
ek zakte
par tner
bu ÄĿeto
Ve Ä¾
Av antaÄĿoj
pr Ã¨s
ÐµÐ ¿ÑĢ
Vjet nama
alter nativa
Pro pagand
sin onimo
E loi
Spe cifa
reda ktoroj
ubile a
N iÄµ
è½ ¦
pen dium
vor teca
sci encan
Ã¡ ndor
åİ ¿
Eb enaÄµo
Wiki media
vor taron
Ð° ÑĤÑĮ
Inter esaj
for majn
I rana
Mal dekstra
int ernan
in fana
ÅŃtra leco
vsk aja
ÐµÑĢ ÐµÐ
h ebre
Ob jekto
ne oficiala
Fi zika
mo raÄµoj
vi lao
r ondon
tÄ Ľ
mal plena
Fran klin
Sa hara
w ick
ÑĤ Ñĭ
ÄĿ ermo
ar entoj
ÄĪ arentoj
cent rejo
ne mann
Al taÄµo
in spiri
s hausen
Ã¸ nd
Äį ÃŃ
mater ia
¶ ÑģÐº
kl arig
vri taj
kon fid
sw ald
mul teko
z Åĳ
y Åĳ
komp leks
IK O
b uton
Å¡ t
aÅŃ tono
Ð¼ Ð¸
gul on
va lito
li ÄĿis
lu ndo
EN O
kas edo
ef ektive
tra vide
li vio
A RE
ãĤ ¯
jek ta
ro lita
tra fiko
Ali maniere
taÄµ on
Ġ 052
vent uala
ÄĿ inta
jo urn
de lika
sil van
Ð² Ð¾Ð
pa tak
hof stra
ä¸ »
Į ä¸
LE N
E MA
A MA
ÅĿ tej
Ñģ Ð»
De fen
iÃ Ł
iu tag
B IS
T IS
stre am
Ðº Ñģ
stru itaj
b itan
erm itan
las inte
isti c
en aÄµoj
bi zan
a eraj
ka dre
³ ÑĢ
st rita
Pr onon
aÅĿ ismo
mita jn
mar kolo
hÃ ¨
em bri
qu ist
gu stin
ÃŃ o
ÃŃ s
v igi
gen eral
Ã¶ d
ver ein
u rig
erm onto
J Ã¼
Ã¼ ne
A kra
}} }
Mon eroj
ov iÄĿo
kol or
kol ojn
re lit
tr onoj
S atu
bo urg
sek vaj
pon on
sek san
pri et
T rez
mar ko
var do
ch ite
st olo
te olo
fin aj
ele j
K laÅŃ
v ju
to rto
ista roj
pre ÄĿo
E Ã»
rol is
pt isto
y ou
F rat
ez ulo
vi ando
st ando
on ard
af Ã©
ku dr
em eno
eno de
G eno
tin i
H aÃ
q Ã¡
ust ig
le tt
c ale
R uz
ge ble
sc ar
v ris
mi ris
H ari
la van
for mon
ern on
eri um
pre mo
Pro pre
ri ana
ast ro
ton ajn
ig ata
ere to
za iko
s za
po za
j za
k ina
lo ton
ho ro
ne mal
ani zi
tan c
mb as
a he
is ing
B ing
mu ra
ti anoj
om anoj
H anoj
1 006
le op
ga taj
hi da
zo fo
ir ojn
ch iv
me tis
ke mo
ib le
um isto
sta z
z av
T ara
lin oj
me lin
ne ÅĿ
su ge
int an
et eran
O sa
et ano
bo f
zi da
H af
le men
on su
ie vo
eo is
ost ok
r Äµ
eg el
eg as
36 68
Äīe ta
ter y
36 72
tu la
re tu
an ent
k ent
02 81
37 61
or ic
ar ic
03 59
go st
07 80
03 80
Ġ199 45
j ut
H ut
W id
id io
se z
se ig
se y
os se
va a
A ig
ri ki
C ed
in ed
mo da
da b
ra il
or ul
re et
ad ad
p ne
u ur
ur ti
le ur
os an
ko pe
ma ÅŃ
ni an
na h
er el
am Äī
o al
d ti
ti h
no f
O la
z la
to st
v f
O Z
F Z
è ĳ
¿ é
ĭ ħ
J B
¸ t
Ñ Ĭ
N Z
V M
£ e
è ´
N r
± ç
» Ĭ
Z M
o D
å Ŀ
¾ Ĺ
¡ Į
º é
ì ²
G J
Z K
ç ®
Ĥ y
a G
Cof frane
âĶģ âĶģ
¾ Ĭï¾Łï¾Ŀï½
¯ï ¾Ĭï¾Łï¾Ŀï½
Ļ¥ âĢ¢
.â Ļ¥âĢ¢
P omeria
pa cistojn
Re vue
Py thon
Hib iscus
for maton
jun guz
M junguz
Ma gdal
re zerv
U ETA
tensi ons
ex tensions
Ë ŀ,
pat ricia
ë ¦¬
Lars on
L Larson
Karakt erizaj
re gistro
.âĢ ľ(
Fi ÅĿkap
Sz ilÃ¡
Kri tikantoj
mu nicipo
Leo pold
maj uskle
Ðļ ÑĥÐ±
Ã¶ rgy
intele ktuloj
ãģ¨ ãģ
Alt enburgo
kr istanoj
vor taristo
gi taristo
è¦ ģ
Kon kordo
ko operativo
G imnazio
Bla hma
d Class
At laso
âĢ¦âĢ¦âĢ¦âĢ¦ âĢ¦âĢ¦
âĢ¦âĢ¦âĢ¦âĢ¦ âĢ¦âĢ¦âĢ¦âĢ¦
ta fore
g manÄĿo
ta gmanÄĿo
re litz
voj aÄĿoj
se xy
s istanta
çľ ĭ
ge bleco
mal multe
Kul tivado
T HC
ze poka
Me zepoka
è¿ ĩ
Åľ eba
ïĿ ¯:
De lega
AV RS
. </
Î¿ Î½
ur rent
Kor espon
ofic periodo
r konst
åľ °
pula raj
um peto
En ergio
ÐµÑĢ Ðµ
ga zino
ara bia
hem ia
in hard
tra jna
Ðµ ÑĢÐ°
fiÅĿ oj
Sta rante
= ="
dukt 
zit is
Pro tekt
do lÄī
Ń çļĦ
ÅĿip oj
er ica
spiri ta
å® ¹
dol fo
ir kau
no logia
re gist
ro lino
K PD
Ger old
te listo
Uni kodo
nif anta
ig nif
ali anco
olon jo
na tivo
ÃŃ Å¡
san ule
kon sol
per fekti
H MI
Ã® oj
hÃ¡ za
lo cal
Ã¡ cs
ligi taj
Mal nov
mo bil
Ar mati
nen berg
aÅŃ tent
ÑĤ Ðº
fes iaj
ko stoj
tu des
AS T
b omb
zer coj
bar rio
del barrio
W Ã¤
à´ ¤
enci klo
EL S
di zaj
aniz anto
M ER
C Xi
hal t
o ose
ch oose
vent 
k nik
te knik
don itaj
sz ent
aÄī on
on isma
tal isma
omer aj
b asa
min acio
ãģ Ĩ
» ãģ
© ãģ
x ajne
f enb
R aÅĿ
su spek
vi vas
ekti ga
f ekt
mo sch
ka foje
ny j
Mi ros
ru bri
rab oj
Ã³ g
Ã³ t
li kaÄµo
fan aj
kar cer
c ÃŃ
tig xo
Z uri
P uri
p tion
mal sam
Re ÄĿoj
Ã¶ rn
D Ã¶
ra ÄĿan
te far
imi la
duk 
B iaÅ
tad reso
ÅĿ kin
lat z
kor p
iu jare
pla ce
po lit
El ster
g onoj
Ka rav
di gis
f ald
g esi
k erna
de gen
stra s
B erk
lis ma
F ore
is ati
si dent
sa ÄĿa
S ene
Pl ene
ene oj
Pir eneoj
int ens
s rc
aÄĿ uloj
r uloj
aÄĿ ero
z anio
i tiv
ju ga
ez ista
v ista
ind er
ten oj
ten is
S ven
di kam
kam ent
l eno
Ķ âĢľ
l son
son anto
min al
Kom pli
ta ble
y ber
anc y
I ris
par d
mal ob
ob s
flu anto
ri eto
ta lon
end iÄĿ
u for
il mon
kr ona
3 004
iz io
tor ial
h ame
ame ÅĿ
r ismo
la dis
ere mo
N ere
ver da
gu es
ej za
ÅĿ ina
kt ante
ero po
ero de
ka ton
ho li
p ani
ra tan
he lo
er he
ing st
E nter
ll n
bi en
man taj
le taj
ol anta
ha do
az et
H aro
on fa
ar ib
at ino
al por
sta to
vi rg
iv aj
iv es
iv el
R and
du h
g ge
ge jo
S ano
or ano
! --
Â» ),
, Â»
re ce
H ak
bl ia
Ġ .âĢĿ
vo h
or ej
on ok
u pi
pi le
pi ru
pl as
de Äµ
an ks
27 69
P ter
ot te
ot ti
ga g
G og
og an
ent ran
ru ko
ru u
sp ic
08 59
86 29
S ond
me go
Ġ200 34
y lu
t lu
la ut
". [
ki es
is ki
kon io
O po
po do
Li po
ar po
I da
ik il
ul le
ant y
un j
y ur
tr y
Z ie
l pe
de ci
de ma
de h
st om
ÅŃ Äī
at y
do te
h mo
me an
d me
le oj
¡ ka
E ka
ti as
aj ko
w ri
m ri
W ri
K no
o am
K ta
§ ģ
Ê §
n T
Ù İ
ģ æ
í ķ
R d
! =
¹ ç
} (
Ĭ ¸
è ¾
¸ o
R X
. =
¸ £
Ŀ é
è į
é ł
Ĩ ç
âĢ ľ?
sp ektak
DaÅŃ ripova
de cimal
Val entena
gen eracia
dio ksido
game ÅĿ
Gil gameÅĿ
sa telito
G ÅĤos
z sef
JÃ³ zsef
pro duktita
Ka lifo
Ne palo
hor izonto
Par enteze
Az erbaj
Esperant istiÄĿis
Ep istolo
legen de
Äī ambra
sva hile
Ita lujo
Pr ince
Kr istanoj
Kur ioze
flu ghaveno
doku mentado
pro pagan
maldek stren
el staraj
éģ ĵ
op inie
Fl orido
Is rael
D onaco
mo fobio
Ã¼t tel
Pr incipo
C osta
S tone
cego vina
Kon vencio
hel pilo
ek lezia
Ã§ Ã£o
sig nifo
aÅŃ torita
pra ktike
im perio
Ã¦ ÃŃk
va Ã¦ÃŃk
Ko vaÃ¦ÃŃk
por tanto
Ob jektoj
Ind iana
m bejo
to mbejo
di rekt
Ju nie
eÅ Łti
ta lanto
åħ ¬
åħ ³
Ne ÅŃtra
Ð² ÐµÑĢ
ti ques
De legito
aci domo
reÄĿ imon
 araj
J EI
ch ester
doku menton
b ovo
Do kument
gnu s
Stu dinte
æĺ ¥
f aden
Le vice
ÅĿ afoj
skrib oj
Äľ ermo
o kazis
eri menta
ï¬ģ no
Tr Ã¸
pa Äījo
ata kojn
el bach
åı ¸
Dan ubo
ali vorte
Kom unaj
re star
C IA
R IA
s heim
L egi
In stig
Ħ äº
P acon
pr uci
am pag
at ribu
lil ojn
S ON
Åľ anÄĿoj
ule jo
ve blas
ĭ Ð¼
Kom enio
de blaj
pri zor
Ali ÄĿis
end els
C EN
Ele ment
Äī apit
I LA
na liz
ãĤ ĵ
eria lo
vet uri
ver kado
ere aloj
ne ÅŁ
raÄµ ojn
pas inta
gr uaj
Ð² Ð¾
V ill
Bo let
Bi hor
M EL
un uan
AN O
olo gion
ch ich
ÄĿ eme
mi dt
amb urg
per sig
pas ejo
Ä¥ ivo
g aÄµoj
O ly
Ĭ ãģ
hav anta
hav aj
spek tin
eg istri
Per fek
ÅĿ erc
Ġ 050
hÃ ¤
mar sch
Mal ben
el spe
Pro kla
de kla
T Ã³
Ma til
p unk
on onc
her ine
kar bo
75 127
w ry
pan jon
tu poj
sam aj
iri taj
v Ã¶
Ã§ u
ant iste
komp on
b all
H arm
rig ent
Ã¼ ss
g lat
so ph
ph us
2 200
fran k
ga ela
ela g
pri z
er gen
mi ksi
co unt
Kon fu
w erk
al ler
Ä¥ no
ag ner
ht s
za ÄĿa
fr ene
er uloj
Äī uloj
ult anto
ini da
daÄµ ojn
ÄĿ 
af rik
or elo
vid anto
ment ita
kan ismo
at ten
Äµ eti
or ulo
nn y
O raj
in Ã©
Ã© le
ila t
r ung
T ora
Ã¡ rd
Ne ue
v art
vado ro
min d
S ang
H ong
en oro
S oro
par an
pro sper
T ob
end ajn
ro for
ato ra
rom is
3 007
r ine
p ona
ern st
ei di
eri ÅĿ
eri te
sek ve
ial ojn
S pre
ana ga
tika la
le tro
ata ta
st ata
ka ismo
tik ismo
O dis
ver aj
dz in
m ero
ar Äīo
mal o
le he
or ing
y ing
G eb
st eb
an anoj
ri anoj
in anoj
vi ron
G era
to rs
op at
is hi
G hi
zo lo
am pu
ÅĿ pu
pu Äī
od es
Äī ojn
ch ov
ch m
ni ch
an az
ur kaj
G est
en aro
m fa
fa it
ib ur
ak cio
F av
ab al
ÅĿ ig
ÅĿ ad
en ze
G aÅŃ
eran a
ut ano
un uj
uj an
le ce
in ja
as ej
is eo
ta pi
ks il
L ost
eg ed
T eg
Äīe to
ol ter
ka ter
et ter
F ot
ga y
l ga
ir po
og or
G ov
ov iÄī
kon ku
us ka
us et
03 62
nu si
03 63
ru h
ru de
ta ru
Ġ199 47
Ġ200 47
55 52
is vi
K vi
86 59
Ġ199 86
Ġ200 56
kon sp
04 80
ut g
c ut
id m
r va
A va
va de
t kon
de kon
ed s
ģ ng
I Äľ
k da
L ul
y ad
f um
ra um
h ant
ie do
T os
te mi
lo mi
it to
ci lo
g ÅŃ
at ti
Äī at
b do
aj do
µ ni
b na
ma ko
an or
y ta
W oj
{ -
² ç
) _
ľ è
M l
ł n
Z F
Â ±
Ø ´
Ñ Ħ
I w
J D
© ç
å ĭ
à ¯
ç ¨
Ł ¥
U j
a L
Ù Ĥ
H j
ĺ ì
¿ ĥ
V H
W H
M Å
Ã¸nd elag
Tr Ã¸ndelag
Lo wry
âĢ ĶâĢľ
ja raÄĿan
Ka rolino
St relitz
â ĭħ
fre enode
al bumon
Vola puko
komita taneco
els sohn
Mend elssohn
H anojo
sam ideanoj
Sub tenu
Ðļ Ð°Ð¼Ð°
Vola pÃ¼k
Ma gde
tro viÄĿas
Mu zeoj
me tafiziko
men veninta
Hej menveninta
gub erniestro
spe cifaj
Kon versacio
en ergia
Org anizado
kon taktoj
ne 
ra ketoj
x icon
Le xicon
mon gola
te oriaj
Pro vizore
Mo zelo
H ubert
Spe cife
And rew
Al fabeto
hi eraÅŃ
ez uelo
Ven ezuelo
Uni versita
Re ligiaj
Ra hman
mon oton
è¡ ¨
¥ rden
GÃ ¥rden
ke miaj
Do maÄĿe
In ÄĿeni
n ÃŃk
zabe ta
Eli zabeta
pli bonig
Des sau
Du obla
vi debla
mal pura
B ush
Ma laper
anta lono
P seÅŃ
Vin cento
w iec
Er nest
ãģ® è
um bazo
dat umbazo
po stul
Li ght
J udoj
Î¹ Ï
ch ange
kor espon
AÅŃ tomo
Ord inara
G oren
T abel
Pro gramoj
st mili
bi ciklo
dia metro
Her bert
Fran kiv
for male
E milo
Ð¾Ð² Ð°
nu ovo
o vice
arki tekt
W ater
it cher
mi tivaj
In stitu
rapi da
ÄĪ ampi
mis sion
naskiÄĿ dato
du obl
an unc
dika to
ÑĤ ÐºÐ°
nig ht
or usio
) },
Ob serv
duki te
F AI
ÅŃrop aj
ga stig
pe ace
ka stel
B lue
komu nik
ti kajn
M iss
Ð´ ÑĢ
B uton
Mi rinde
Ñĥ Ñģ
Ñĥ Ð½
dok se
B AR
logi oj
sch ule
Ñģ Ñı
enera li
C ors
Pre dik
on ardo
ge ografi
zo fiaj
konstru ita
ÄĪ EJ
li ktoj
ãĤ ī
mi gri
am bas
ken au
c eloj
ist antaj
st antaj
ri ÅŁ
£ ãĥ
ove c
ia logo
mi tejo
Mem orig
tej no
Nas kita
G Ã¤
sem ajne
stre Äī
lin dro
fi zio
arb ar
kl asa
ģ ãģ
Ĩ ãģ
anti gi
ÄĿ ento
h enb
spek ton
bre da
'' '
kolo ro
sci enco
cep ta
es igo
Pro ces
G ros
ntr isto
bri ÄĿo
in qu
kla ra
dr Ã³
kad ro
gu laro
zon on
en iro
A uf
Åľ lim
Sek ure
Ã¶ k
stro fo
eo dor
W all
m Ã¼
ener ado
ver kis
S har
k arte
E dm
So cie
er ling
ent eco
pe con
aci on
do ts
ti ts
ink el
pri ze
s gen
his ch
stra va
ma Äµoj
mi gran
al var
alp h
en ografio
z ler
La den
Ä¥ aj
n amo
lm ar
kon vin
pli koj
ens io
fin gra
kta ta
ita laj
p laÅŃ
si tiv
th al
st one
kul t
el ten
ven de
at ulo
at umo
h nn
raj no
c Ã©
ora s
to mio
le mio
s art
art ha
art he
son ant
ga wa
co tt
eni ro
ma cia
Mo ulin
kri is
ong n
ris ta
par ita
par ana
ÄĿ ilo
ag ord
end ra
A mon
w ine
S ona
of or
pre ci
ont ana
ana to
an tika
ev id
ev ar
aj ev
L ug
il ajn
ÄĿ ata
j up
up h
kv aj
M ina
enc ante
ero to
uk ti
bu ÅĿ
c ca
ca li
gr ua
uro o
b ani
o tor
mb an
iÄĿ ad
iÄĿ er
he mi
g ing
ku pro
Li eb
ci anoj
en op
u op
ip en
io zo
ot ha
ch ap
le ch
rk ta
oc ke
mi kaj
l ke
j est
sp ion
or fa
fa li
f fa
S cio
di ino
J av
av ia
ab an
H ap
ara Äµ
en gl
m ÅĿ
en iaj
A ge
P sa
sa ks
ano lo
am ano
1 005
be te
ro be
zi z
af to
su f
v ce
en ak
bl y
pi to
ci pi
eg re
Sa ga
ga w
sk io
Z ent
ic us
86 83
55 54
ne per
vi on
03 42
Ġ200 86
ond as
fi la
go d
ne go
ta rt
Ġ199 56
ka pr
so d
en sp
lu se
J ut
Ġ200 03
ro co
ie co
Z ol
re ol
I kon
H ul
B um
T um
um d
ne z
am ne
un in
es ur
ik ur
ik st
Äī ik
s mi
pe e
re ek
u ÅŃ
s ÅŃ
do la
ka di
me y
me u
es ar
is es
E ma
ma on
ma b
ko o
y li
v li
B am
te x
( ).
X in
y ro
D oj
ķ ä
; -
Ĵ æ
¦ ç
" }
ī ä
( ^
× Ł
¥ Ń
İ è
W G
« æ
¶ p
N X
w c
L W
O w
J H
E e
æ ¨
Ê ¿
P j
¿ e
X O
Z D
t E
] (
U a
N ancy
Kel kafoje
ad dClass
.âĻ¥âĢ¢ .âĻ¥âĢ¢
¯ï¾Ĭï¾Łï¾Ŀï½ ¯ï¾Ĭï¾Łï¾Ŀï½
Au gustin
ÅĿtej no
Bo livio
EÅŃ razio
du oninsulo
C trl
D dK
NA GEL
ag noski
SCH MI
NAGEL SCHMI
Ki mrio
ba zitan
hidro kole
Es zter
ä¼ļ ç¤¾
kv adrata
ert swil
Ich ertswil
Tr inku
tra duke
Zeb ubon
mallon gigita
Sch warz
mal mola
¾ ãģĻ
asili ca
dr Ã³j
Z drÃ³j
Do ugl
re bsliga
©é ¤Ĳ
æĹ ©é¤Ĳ
komp utiko
pagan da
Ge orgi
Ge patroj
âĢ¢-âĢ¢âĢ¢-âĢ¢ âĢ¢-âĢ¢âĢ¢-âĢ¢
Sek ureco
ef kapitano
B oston
ly wood
fin venk
do gaÅŃa
ve Class
remo veClass
âĹĭâĹĭâĹĭâĹĭâĹĭâĹĭâĹĭâĹĭâĹĭâĹĭâĹĭâĹĭâĹĭâĹĭâĹĭâĹĭâĹĭâĹĭâĹĭâĹĭâĹĭâĹĭâĹĭâĹĭâĹĭâĹĭâĹĭâĹĭâĹĭâĹĭâĹĭâĹĭ âĹĭâĹĭâĹĭâĹĭâĹĭâĹĭâĹĭâĹĭâĹĭâĹĭâĹĭâĹĭâĹĭâĹĭâĹĭâĹĭâĹĭâĹĭâĹĭâĹĭâĹĭâĹĭâĹĭâĹĭâĹĭâĹĭâĹĭâĹĭâĹĭâĹĭâĹĭâĹĭ
fo box
In fobox
mal ÄĿusta
ı ä¼ļ
men ciita
Tran sporta
ve ctor
dia lektoj
si lezia
ab onanto
å¹ ³
iv itanoj
d AIS
komp onisto
ÅĿ tate
ÄĪ agr
å¾ ·
re ganto
Ka bano
éĩ ĳ
ä¸ Ńå
kon cerne
å° ±
IS SN
fa its
am asoj
Be lega
rov skaja
No uve
per kut
ri tismo
Spi ritismo
oki es
co okies
ä½ ľ
fa ello
Raf faello
jud devena
kl asan
åħ ¶
pital isma
] -(
Dan uba
hard t
pri ntempa
P aca
Tre jna
lel ismo
ko lao
u afoje
un uafoje
I rante
Ð¾Ð² ÐºÐ°
el dorf
ver band
so raba
ki tekt
Ar kitekt
Ti beto
ioz aÄµoj
val oron
mal rapi
tion ary
leg roup
ma gist
P yr
åı ĳ
olo giaj
viÄĿ anta
K AL
Ser Äīu
re ktan
 ta
z itoj
ers heim
Sam tage
Esp loro
lal taj
Ðº Ñĥ
Ã¿ an
Val bona
IS MO
Å¡ Å
ef ikaj
st alin
pl umoj
Re ÄĿis
E MI
A post
S EN
vide o
C anal
Ã¨ le
Ni hon
Kom encoj
era ciaj
fik ciaj
ch ild
T Äĥ
fran ken
F IN
urn aloj
z berg
tent ika
un uaj
preneb la
sp erto
pre sita
I EL
go gia
tori oj
B urgo
H amb
E lov
lig enta
k daÅŃ
kdaÅŃ no
mar kdaÅŃno
s omer
ag ordo
vi zoj
kal uloj
F raz
M asi
mon ey
erne t
ran gaj
tri foje
pe tado
ul tita
proksi m
n ya
ino logio
kar toj
pe zon
B red
te orie
tar do
s aÄµo
g aÄµo
flu aÄµo
t Ã¶
Ã¶ rÃ
sa ÅŃro
rig ante
lav ismo
sk lav
kon ekto
rÃ ¨
vu jo
dz iÄĿo
lÃ ¼
pren on
kr onoj
Ti bor
Sa blo
in und
pri mon
En ire
tra ck
rov u
uc u
erb oj
do mar
um ula
ab ula
voj aÄĿ
et nan
ner aj
Part neraj
vin c
Åľ raÅŃ
pan ÄĿa
fer dek
nt uloj
ba ult
" ],
b 
aÄĿ ojn
ro th
h ind
mo ment
E ten
re doj
il ando
ura l
Pl 
h ena
iÄĿ ena
te ls
gra daj
ton mor
for mor
ons or
me ier
Ł eni
Z ala
M ang
anc an
gar et
ari za
al flu
ple j
lon oj
I NG
lo mon
la mon
F au
un goj
ern oj
ern h
ev u
ar ea
K isk
tra lan
in dis
L up
ri ton
ho ut
M uk
uk as
bu i
tor ojn
ÅĿ tor
t je
je ka
le mb
ov iÄĿ
he w
P ing
st ing
ti mu
A bi
ron e
s era
iv era
me loj
op y
os hi
o hi
ub oj
J ub
L ub
w ub
ul anta
z ha
ut ojn
tu ch
ro kaj
ko sta
T av
ab r
du ÅĿ
re ba
te ge
W int
st aÅŃ
ci ono
ano w
ad ano
F uj
bo to
af en
mp ita
u gi
lan on
Ġ200 000
al ej
ej an
D ac
ti man
M ok
ok ar
en pl
A Äµ
in ks
to ks
al ks
ar eg
p ondi
68 55
44 73
r ga
tu mi
44 79
ru z
03 49
03 39
44 29
03 31
65 80
C ond
no gr
ti fi
sp en
lu nd
id al
ik ve
ie ve
ve do
co d
w ol
se i
ig ro
h ran
ek kon
l po
po o
il di
es ne
ne v
un am
er un
ik r
M ie
S os
V os
mi h
I mi
; âĢĿ
ek el
ÅŃ ma
do me
ni h
re el
mo or
me oj
ka as
re in
S no
no te
y no
u am
y or
> ).
U ta
in w
» a
Z V
w É
g É
a M
' /
A x
³ è
½ -
N j
ģ ç
± e
d P
Ń )
å ģ
º İ
Ī ç
r É
T b
« é
P W
ç ¬
¨ Ģ
¢ «
´ »
hidrokole ster
Je kater
h nny
Jo hnny
Mat erialo
LaÅŃ legende
eksp erimento
den askuloj
e pidemio
st rong
u logne
Paro Ä¥est
f Ã¶rde
An jou
As embleo
Mal eine
Gene alogio
interv juo
mar schen
re tejon
dan ÄĿera
ide nteco
Bon ÅĿance
Im peria
ko terio
Vi laÄĿoj
vi laÄĿoj
Re cipro
Ant aÅŃu
Gran dega
mo lekulo
Mal feliÄīe
Kon stanca
Malav antaÄĿoj
çŁ ³
uni verso
Kan didatoj
Ä´ usaj
po pular
mo lekul
Kun laboro
ser ioza
mu nicip
Tek nike
dor manta
mal peza
Por tugala
Re volucio
at inge
ÄĪ iufoje
na eus
Bri dge
Ch risti
bal kara
fen estroj
pro pran
Ant aÅŃa
in ette
ÄĪef ministro
pa cifika
Mi tologio
Inter konsento
alisto ko
ne ÅŁti
ti ukaze
de vus
åº Ĺ
Îµ Î¹
Ad resa
Feli Äīan
pa rolu
di rekti
fr islando
P HA
h Ã©r
Fe hÃ©r
H undo
³ å·
flu ganta
Ġ( ?).
So uth
vi dilo
Mon ument
sis teme
ko mand
La tino
la tino
cent ralo
Pla tero
ko vice
ÅĻ ich
si rÃ©
DÃ© sirÃ©
pl anado
I CH
ri que
est rejo
skri ba
A pero
z bach
ap rila
ÅĤ ad
RO NO
E CO
or usa
Po ÅĿt
si mpa
Po zicio
zet ojn
AN TA
Re ferenco
Dum tage
M ike
Ð¼ Ñĥ
Ku Ã¿
arki 
bio logi
E duko
mal riÄī
Fra teco
EJ K
ar mena
in alaj
E liz
ãĤ Ĥ
B esto
ess and
gri ma
li che
nu kso
si lion
mÃ Ńr
à¤ Ĥ
ak aloj
· ãĥ
F lora
G logo
omb at
eÄ¥ an
ko bal
k antaro
EL A
EL O
V AN
P AN
R IS
im anÄī
± Ð¸
I EA
ov adon
d adon
far itan
Ġ 037
ur isma
S inte
est inte
pro fil
M elan
poz ic
« ãģ
¦ ãģ
ES I
aÅĿ io
B aÅĿ
Ġ 058
for igo
Ġ 054
¶ Ðµ
E qu
ek tita
S kla
is nun
tig on
Na cioj
eral oj
red 
ho use
za tion
st oka
C iri
ku iri
ys z
s istas
Ã¶ b
pek te
ab omen
ph al
ph en
Al fon
d iÄĿo
an inoj
gare ta
O ster
klu bo
Kon kre
urg h
ark as
W ay
ku naÅŃ
Pli gran
ci rka
kci is
lik ana
ÅŃ kaz
anÄĿ e
stru oj
ika ro
U ser
R olo
ni gre
maj st
nu koj
ajn fin
tri c
ti laj
daÄµ on
i 
ter ioj
du one
S ind
ss ic
ten do
eti ko
ok alo
on ulo
Ã© ro
fer io
eb ena
it ung
a wa
do log
uz u
sk oje
ren ce
ui te
i ers
ang ni
oro s
re par
bo par
ek sper
ord ia
ro lon
be au
de au
au er
di goj
ona ti
ek ona
H are
id eri
pre c
li ana
ev en
R ug
A ug
ast i
te tra
enc ajn
h ajn
ro ver
kv in
ero i
me ton
B uk
bu jo
A uro
K ani
tor f
mo tor
Li mb
he a
el he
Li ll
eb ro
M anoj
era u
ian ne
Mar ianne
op p
hi ma
i hi
pu jo
ub sk
ha ve
es ojn
Sa ch
Es enc
te str
er ag
ion s
C ion
te isto
ro sta
on sta
p anto
ara z
lin s
z lin
lin ia
ba um
as and
rm and
aÅŃ ka
et ono
bo ta
¦ Â»
ri men
nd ita
ak es
ak ed
S lan
li vo
G ej
B ej
i jo
ku jo
ns h
ok eo
er eo
a pl
la Äīe
ci ga
ir ia
N og
O sk
ku o
65 81
ol us
kon us
65 53
per st
55 01
03 29
sp li
er lu
lu p
M aÄ
id ne
el ve
M iÄī
ol de
se v
C se
va is
nd ig
ki le
w ed
io po
po da
z da
il or
ro ad
ad w
G un
ta ur
ÅŃ tr
ÄĿ ik
ri ci
l ci
F at
ni b
me me
en le
j te
C io
x en
ĭ é
W P
ĺ å
Ø ©
¥ ¿
ŀ ç
¯ ¿
¦ è
Ð ¨
ł i
Ð ¦
( :
è ģ
è ¥
æ ·
Mar garet
Go tardo
sb asilica
peter sbasilica
Bir kenau
ï¬ ģng
her cegovina
kon sistanta
For lasinte
Reg ionaj
Ad miralo
âĢ Ķ"
Venc eslao
Sa hlis
sin sekvo
ko mune
Al fonso
ev itinda
gorit mo
le hemo
Bet lehemo
man ipu
V IVA
Si lento
Re lativa
cifik aj
Wolf gang
to lere
Ti usence
F ischer
ÄĪ iutaga
G hali
ru briko
Ð½ÐµÐ ¿ÑĢ
ÐĶ Ð½ÐµÐ¿ÑĢ
Mar bordo
ÅĿ pruc
re klamo
Ang lujo
ch tenberg
ef emer
Sem piono
c uela
Es cuela
éĺ ³å¸Ĥ
sig nojn
an tropo
Ñģ ÐµÐ¹
Ø§ ÙĨ
AÅŃ guste
åĴ Į
kun laboro
æ³ ķ
ti toloj
Par donon
Mal varma
or anÄĿa
aÅŃ 
Ant aÅŃparolo
rog enezo
g enezo
kole ktiva
ele 
tsch berg
LÃ¶ tschberg
Ðĳ ÐµÐ»
Ber lina
br unan
goro da
éķ ¿
F remd
D iris
arki tekto
re gata
serva torio
æĸ °
ãģ® ãģ
t formo
pla tformo
ÄĿ ejon
poli tik
Vi ziti
Est rarano
kon silo
w ilt
kva litaj
ark indas
Rim arkindas
no vajn
HA AS
L HAAS
KO LHAAS
kurac isto
ad jekto
fara do
a fiÅĿ
P omerio
jo 
ti dae
vi dinte
erw el
Or lean
estfal en
B ÅĻ
skrib ita
ri vera
Ñĭ Ð¹
ÑĢ Ñĭ
si tivaj
Ġ" [...]
st ilan
skri to
ant lingva
esper antlingva
komun ismaj
Sim bol
P SI
tekst o
l Ã¡n
Ã¢ r
ter api
san ktan
ek rano
va tage
Sek vatage
pil is
gv ineo
Nov gvineo
y dn
Ha ydn
aÅŃ flanke
Amb aÅŃflanke
tun aj
A VI
j ektive
g 
Ka pti
El paro
A LA
am ente
Mi lita
izo lita
V Äĥ
Sam maniere
tia maniere
nis che
IN O
ar igita
nov ero
Han novero
plu red
ãĥ ª
ãĥ Ĺ
arta loj
G lora
zer no
Ã¤ ld
Al fre
F EL
AN A
bl anko
kon ker
ich te
sig noj
Ju vent
pas e
pas int
i isma
fil io
Ã¡ ly
mi ly
Ġ 087
jun ulo
Ł ãģ
eda taj
pos edataj
rig ento
G ento
leg ia
A ES
di rita
dire kta
to bre
vad or
Ku raÄĿ
kna boj
la lte
bra ki
b inda
y Ã³
ur inde
le ya
Mor leya
3 346
Ho tel
ÅĿ oko
for igi
ar igi
mu laro
la cioj
sta cioj
orie nt
) âĢĻ
iri te
ki ras
Ã¶ tt
ust rie
Ind ustrie
Ã¼ rk
}} }}
V ekto
pro mis
Est iÄĿo
fri q
ultu raj
l aroj
Su pren
rav ano
bor g
val ora
S erg
or ts
d atu
bur y
as ence
f esi
io kaze
ck ern
urs ci
y sl
b stra
ite c
sto la
re stis
Ko Ä¥
J esu
w ee
A gn
nu tri
str uloj
S ciante
k laÅŃ
ogra do
a cian
ul pt
c 
ve gan
at raj
er tal
sp ert
kam po
eno va
mer oj
tin aj
Kr Ã¡
gra dan
il son
on ale
eni te
per if
d rum
at ers
ber w
ber ne
gar y
res aj
C ris
ris on
par ko
re stas
c ord
man eto
h uda
O lon
lon ia
st ine
1 004
uto ro
y ern
pre ti
K ana
O Äµo
H ug
un ajn
T ere
t ver
c up
et up
ton on
ma Äīo
Ne bu
bu to
me ca
nt uro
ste le
f fl
iÄĿ aj
he v
he le
ta ll
z anoj
A roj
aÅŃ taj
fi ch
z ag
ag ro
es ion
iam aj
mi isto
isto l
ut ino
ad av
in av
c ab
ap s
ara m
I ba
de ba
int ec
sa i
tr ono
am ita
ud re
ce co
ak as
Z ak
ka fo
D vo
R eo
O ost
ost at
65 72
kon ga
x ir
ir mo
pa kt
kt in
ar sk
65 78
44 78
03 79
ku re
Ġ200 46
44 70
44 49
Sa vi
44 42
Ġ200 55
Ġ199 55
Ġ200 65
Ġ200 35
l ond
e gr
so w
pa i
03 40
iu se
K ran
l ki
E po
em ar
da ur
R ul
ci um
un er
P ik
to pe
ro de
om y
el z
ko ka
G no
no to
aj la
ar q
to is
w ra
§ on
ł Ń
é Ł
; "
D Å
æ »
æ Į
é »
R Q
æ İ
V J
a N
ç ĭ
t D
Ð Ń
¸ ç
ĺ æ
U c
Ù ĳ
» Ļ
· ±
Ĩ Ļ
ī ĭ
Ķ ±
* -
½ Ĩ
½ è
( \
da urinde
epi rogenezo
st petersbasilica
ny angni
ong nyangni
Che ongnyangni
Ĵ åºĹ
éħ ĴåºĹ
ï¿ ½-
por nogr
bil domar
ux faits
Ma uxfaits
Jo dogaÅŃa
å¼ı ä¼ļç¤¾
ª å¼ıä¼ļç¤¾
de hidrokole
Barte lemio
R alph
Mal ovec
sw itcher
Ã©r antiste
í Ĭ¸
Re inhard
Long eois
if swald
Gre ifswald
ernf Ã¶rde
Eck ernfÃ¶rde
Re daktu
ek lezian
eÅŃ ropajn
Ī é¤Ĳ
åį Īé¤Ĳ
erw elsch
ud erwelsch
Ka uderwelsch
Pre terpas
di fton
ren kontig
ser vilon
á´ Ĳ
is nuna
So vaÄĿaj
kal drono
Demokra tische
Ĩè¯ įå
åĪ Ĩè¯įå
ĺ ìķŀìĹŃ
ë¬ ĺìķŀìĹŃ
Ļ ë¬ĺìķŀìĹŃ
ëı Ļë¬ĺìķŀìĹŃ
al vokoj
bol ÅĿev
âĢ Ŀ(
ver siojn
indu striaj
in quart
Ha inquart
tsch school
iti tschschool
adline Servilo
De adlineServilo
The DeadlineServilo
ter TheDeadlineServilo
Af terTheDeadlineServilo
Ad resaro
!.. .âĢĶ
de fault
J upit
har monia
Le cionoj
leg roups
goog legroups
de adline
the deadline
ter thedeadline
af terthedeadline
Tre jnado
nnnnnnnn nnnnnnnn
Mal proksime
ar dena
Ale mbert
................ ........
å±± å¸Ĥ
ÅĿ torm
pro duktoj
E seo
j falu
is morte
å¹ ³å¸Ĥ
multa jn
éĻ ©
R HK
Al teben
Bor rego
Kun 
ver lee
He verlee
ef ektiva
Or say
.. .",
Kl arigo
Ïĥ Î¹
vers ity
Ko lektoj
Geograf iaÄµoj
sc ribe
åĬ ¨
Hi pote
Kv artalo
Äµ agentejo
nova Äµagentejo
ma tena
dum viva
æ¸ ¸
³ å·ŀå¸Ĥ
slav ismo
ä¹ Ī
Ģì Ŀ´
¼ ĢìĿ´
ì ¼ĢìĿ´
c lass
fra zojn
!!!! !!
éĩ Į
Ã± a
Sin onim
Î» Î±
Kal inin
Pro pono
Be atri
Rus sian
stra sse
mor gaÅŃ
Lev iÄĿu
litik isto
is put
A tribu
Ðµ ÑģÑĤ
Kom puti
de puti
kl arne
di tions
Kon silo
> âĢĭ
åŃ ¦
po pula
R och
Ġ--- ----------------
pa filo
pu tila
Kom putila
Reg ulaj
L undo
amik umu
 ismo
for mala
sc ript
F itz
çļĦ è
çļĦ é
ir port
Ä´ azi
Ð¿ Ðµ
im my
pend io
nive la
N askiÄĿinta
I PA
vÃ¡ ros
kan nad
Esperant istaj
Ġ* *.
Sek vanta
raÅŃ lino
10 551
Ã¢ n
aÄī onj
Bad aÄīonj
mpa do
ferenc ojn
la test
T oke
hw eb
eart hweb
iv idoj
bul on
Ã³ nia
Harm Ã³nia
prezent ado
produ kti
ci leco
im arki
Ã§ ais
Å¡ ÃŃ
po staj
evi nte
Ric evinte
Ĺ å¸Ĥ
I TV
: âĢĶ
- âĢĿ,
Z EN
ti gilo
h ref
E EK
U RO
EÅŃ stat
is fine
do cs
tte atro
konstru ado
I AT
K AT
po von
EJ O
paro la
li vero
cz y
B LA
g xa
t encoj
D omoj
c Äĥ
li dar
r che
anj in
igita jn
dal ena
sk emi
m yo
myo ap
Dong myoap
flu gil
kov ris
lug il
ä¸ ľ
B LE
Ã¤ d
ķ à´
sal aj
tag ne
re ich
Äľ ojo
ose do
Ã© sz
dro x
p itan
nc hen
Vi zio
naci isma
fil on
Je ff
lo pedia
orti nta
Y ork
ãģ ĭ
y ota
f leg
leg it
A leg
ÄĪ uv
al mana
or ski
spek te
istri ta
sch u
aran ga
ov igo
tu rado
ben do
om bra
bra ry
qu us
me tado
or inda
ark inde
proksi mi
iÅ Ł
te ln
rog eno
E lie
bon igi
po zita
eral aj
fo iro
graf arto
tipo grafarto
Ã¶ f
H all
F lam
) }}
vi vu
ch ow
us kol
ster ol
so cie
di lig
ile jo
Bab ilejo
la con
le ty
atu ma
de bur
ot cl
x otcl
pri ma
fa ire
lo dio
ksi ka
? !"
pen ha
lik ismo
ra lis
an sd
stronom ia
a stronom
uti maj
la ÄĿa
ens or
raÅ Ł
gn es
a dek
aÄĿ i
di th
p one
ista la
al ista
b ind
M ind
sen kul
pt 
ane da
f ane
oni do
ss ing
ple ment
kan aj
ka ten
ven co
gr ulo
ulo u
mp ulo
li umo
raj ta
N Ã©
iam 
um eno
ab eno
rd eno
no tin
ons aj
un ulino
es ejo
F eni
ni foj
um ber
ong aj
No de
c ris
ve sti
sti ka
sti oj
ch ilo
P ilo
en ob
Al flu
flu a
B ord
Po eto
su ple
er van
W end
don anto
iz u
iz an
er are
ei j
of ta
al moj
ri ev
c xo
ro ug
ÅĿ ute
/ );
tra l
s ismo
Li ver
s ver
mi ld
up t
ef f
kv anto
gu nd
za taj
I za
ist ina
ul ante
b ante
tr ante
pl ero
de ton
h ton
ac ho
S ho
ho me
at ho
bu ita
orn is
uro s
me tan
ti tan
va ste
[ ].
B ism
bo he
mu ro
bi ci
ta bi
rs g
ch op
ed roj
st ip
hi to
to zo
la zo
zo ta
pu ri
c anta
x ojn
ch ie
ch ul
S tis
az ia
fa la
ib r
ib al
or por
C av
in anto
s anto
anto s
ur anto
ap oj
ÅĿ er
s ze
ba p
du a
ge lo
vo bo
S vobo
bo b
af on
N af
ita ta
o ud
ak h
an ak
mo lan
K lan
ac an
pi ko
Äµ ar
M ost
ost oj
ter f
er sk
t sk
Ġ200 77
ent um
po ent
65 82
si di
Ġ199 46
03 43
44 41
Ġ200 36
Ġ199 36
65 31
Ġ199 65
Ġ199 35
go ra
go go
Ġ199 33
Ġ200 33
Ġ199 34
jn h
so t
l sp
Se pa
ut ta
ne id
co de
se h
Z ig
v ran
un ki
l ng
j em
Z ul
ad ro
iu le
ne ur
z ne
C un
as ie
ÅŃ mi
ek en
į ek
ek er
En de
it re
ci te
S le
le la
ma Äī
ta al
g ko
am or
v la
x ta
an en
ro is
A is
ĭ è
, _
p A
Q U
ç «
E z
Ł è
ç ¶
Ħ ı
X T
Â ½
N g
ç Ĭ
t A
| }
ĺ ħ
= (
ä ¾
K F
/ *
° ç
% }
ģ ł
ç ĩ
° Ĩ
ç Ĳ
W R
H rsg
per plured
Bj alistoko
de hidrokolester
Le onardo
Sz eged
mater ialojn
Cat herine
Am erica
Me moraÄµoj
B ismar
mi liona
al manako
Al fredo
me dalo
st 
Po stmilite
hoog roups
ya hoogroups
Bene dikto
per rigardo
izonta la
est onteco
ÅĿ tormo
warz wald
Vi rtuala
Cast elma
Ling vistoj
tra jnoj
igne ment
vet uriloj
pl anita
Al portu
ku timoj
P ablo
Stra tegio
dan ÄĿero
as komunikiloj
Ser pento
Tro vinte
ek zisto
unc ulus
anth era
fre kvenc
Ti beta
el cente
de fini
fa vora
we ight
re alismo
AÅŃ skult
ka talu
libro servo
K emia
gra matika
vo katoj
Un esko
ÅĿ losi
Kont rakto
bra zila
po vus
Ã¡ nos
anh aja
Îµ Ïģ
int akso
ara mea
litik 
Ð° ÑģÑĤ
mal bone
Ver kistoj
So veta
Al pes
W hat
De parta
or doni
kt uraj
el low
Kam arado
T ake
memor oj
ent ilaj
Jac kson
in skij
stil ia
Qu entin
P eza
chw itz
ite kturo
to mbo
fi lioj
FE F
fak toroj
ef ikon
kv erko
B ulon
mo logia
Mos elle
Te xt
ar mila
O KA
mis uzo
G eolog
mond aj
Nen eca
an kulo
bl ankulo
zz ano
ra ham
Ab raham
Le ÄĿon
di vers
I lust
do loro
min ejoj
Ð´ Ðµ
Ñĥ Ð´
Pli poste
ma Ã¿
Ã¿ o
AR I
dis erta
kv 
Äµ arg
spe cif
para ton
fig uroj
Åľ tono
feliÄī a
for umoj
S SE
D EN
EN C
flu gilo
or dig
Kon sul
De tala
RO J
v enca
S Ã¨
paro li
ti paro
tra ktado
hon y
v rilo
Ġ( âĻ
liz acio
¨ ãĤ
bru ck
kontra ÅŃa
Äĥ c
Pro gres
iv aloj
ok aloj
ubli koj
histo ri
kv arta
Ja kov
[...]
